<pad>	0
<s>	0
</s>	0
<unk>	0
▁.	-0
세요	-1
▁사	-2
▁좋	-3
▁있	-4
▁이	-5
▁거	-6
▁?	-7
하는	-8
보세요	-9
▁그	-10
▁나	-11
▁아	-12
예요	-13
▁마	-14
▁사람	-15
▁좋아	-16
어요	-17
▁같	-18
▁거예요	-19
▁하	-20
▁생	-21
▁다	-22
▁어	-23
▁가	-24
▁안	-25
▁해	-26
▁수	-27
▁사랑	-28
네요	-29
▁연	-30
▁없	-31
니다	-32
▁생각	-33
▁자	-34
▁잘	-35
▁힘	-36
친구	-37
▁싶	-38
▁여	-39
봐요	-40
▁너	-41
▁많	-42
▁말	-43
▁만	-44
▁남	-45
▁것	-46
▁시	-47
는데	-48
▁내	-49
▁마음	-50
▁않	-51
▁너무	-52
아요	-53
▁기	-54
▁보	-55
▁오	-56
▁지	-57
▁바	-58
▁좋아하는	-59
▁더	-60
해보세요	-61
▁이별	-62
▁정	-63
▁연락	-64
▁헤	-65
하고	-66
▁일	-67
▁헤어	-68
▁짝	-69
▁있을	-70
▁고	-71
▁썸	-72
▁여자	-73
▁남자	-74
으면	-75
▁되	-76
▁힘들	-77
▁좋은	-78
▁모	-79
▁한	-80
나봐요	-81
▁알	-82
하지	-83
▁많이	-84
▁시간	-85
▁게	-86
▁사람이	-87
▁때	-88
▁상	-89
에요	-90
▁저	-91
으로	-92
▁무	-93
▁못	-94
▁친구	-95
▁건	-96
한테	-97
에서	-98
▁전	-99
▁주	-100
▁먹	-101
▁좀	-102
▁중	-103
▁!	-104
▁결	-105
해요	-106
▁같아요	-107
까요	-108
겠어요	-109
▁부	-110
▁있어요	-111
▁싶어	-112
▁인	-113
▁대	-114
▁조	-115
▁살	-116
▁당	-117
▁받	-118
▁뭐	-119
하면	-120
▁선	-121
▁제	-122
▁될	-123
▁후	-124
▁오늘	-125
▁같아	-126
▁만나	-127
▁할	-128
하세요	-129
이에요	-130
하게	-131
▁괜	-132
▁걸	-133
▁끝	-134
겠네요	-135
주세요	-136
▁자신	-137
▁미	-138
▁소	-139
▁진	-140
에게	-141
▁이제	-142
▁드	-143
겠지	-144
▁들	-145
▁좋을	-146
습니다	-147
▁아니	-148
▁괜찮	-149
▁마세요	-150
▁필	-151
라고	-152
▁잊	-153
▁감	-154
▁있는	-155
▁마음이	-156
▁하는	-157
▁연애	-158
▁비	-159
게요	-160
▁내가	-161
▁필요	-162
친구가	-163
는게	-164
▁해보세요	-165
▁혼	-166
▁스	-167
▁왜	-168
▁모르	-169
▁공	-170
다면	-171
▁어떻	-172
▁예	-173
▁차	-174
▁집	-175
▁다른	-176
가봐요	-177
▁타	-178
▁행	-179
▁어떻게	-180
▁물	-181
▁짝남	-182
▁시간이	-183
▁헤어진	-184
▁날	-185
▁돼	-186
다고	-187
▁서	-188
▁신	-189
▁없어	-190
▁도	-191
▁애	-192
▁당신	-193
겠어	-194
해도	-195
▁방	-196
▁싶다	-197
겠죠	-198
▁관	-199
▁우	-200
▁다시	-201
사랑	-202
▁혼자	-203
▁했	-204
▁맞	-205
▁있어	-206
▁눈	-207
인데	-208
▁하고	-209
▁또	-210
▁결혼	-211
▁정말	-212
들이	-213
▁지금	-214
▁정리	-215
▁노	-216
▁잠	-217
▁수도	-218
▁재	-219
▁기다	-220
▁찾	-221
▁싫	-222
▁계	-223
▁중요	-224
▁참	-225
▁새	-226
▁그런	-227
▁준	-228
야지	-229
이네요	-230
할까	-231
▁행복	-232
▁조금	-233
▁따	-234
▁편	-235
▁확	-236
▁같이	-237
어보세요	-238
▁데	-239
▁위	-240
렇게	-241
▁것도	-242
▁놀	-243
▁언	-244
은데	-245
▁고민	-246
▁얼	-247
라요	-248
▁아직	-249
▁쉬	-250
▁추	-251
▁두	-252
▁피	-253
▁짝사랑	-254
▁반	-255
▁먼	-256
▁의	-257
이라	-258
▁자꾸	-259
▁달	-260
▁성	-261
지만	-262
지도	-263
▁준비	-264
보다	-265
▁선물	-266
▁찾아	-267
▁배	-268
▁보고	-269
▁아무	-270
▁힘든	-271
▁누	-272
▁화	-273
합니다	-274
▁느	-275
▁저도	-276
▁변	-277
볼까	-278
▁고백	-279
▁없어요	-280
▁술	-281
까지	-282
야기	-283
이죠	-284
▁카	-285
▁짝녀	-286
거예요	-287
▁맛	-288
▁바랄	-289
니까요	-290
▁그럴	-291
겠다	-292
▁진짜	-293
▁후회	-294
▁꿈	-295
▁몰	-296
▁운	-297
을까	-298
▁먼저	-299
▁서로	-300
▁바랄게요	-301
해서	-302
▁없는	-303
▁충	-304
▁제가	-305
▁돼요	-306
▁방법	-307
▁사귀	-308
봅니다	-309
▁이야기	-310
▁심	-311
▁적	-312
▁문	-313
해야	-314
▁헤어지	-315
▁직	-316
▁시작	-317
▁동	-318
▁헤어진지	-319
▁불	-320
▁들어	-321
▁귀	-322
▁돌	-323
▁해야	-324
▁있을까	-325
▁올	-326
에는	-327
▁그녀	-328
▁하나	-329
▁답	-330
이야	-331
인가	-332
▁계속	-333
▁일이	-334
▁나를	-335
▁받아	-336
▁아닌	-337
▁좋아요	-338
▁버	-339
▁줄	-340
▁공부	-341
해주세요	-342
▁1	-343
▁매	-344
▁감정	-345
▁사랑이	-346
▁마음을	-347
이트	-348
▁가능	-349
▁될까	-350
▁보세요	-351
▁왔	-352
▁기분	-353
▁여자친구가	-354
▁먹고	-355
려고	-356
▁힘드	-357
▁남자친구가	-358
▁돈	-359
기가	-360
면서	-361
보는	-362
▁만들	-363
랍니다	-364
▁여자친구	-365
▁현	-366
▁실	-367
▁회	-368
대로	-369
했어	-370
▁드세요	-371
▁않아요	-372
▁하세요	-373
▁떨	-374
▁신경	-375
▁이상	-376
다는	-377
▁좋죠	-378
▁하루	-379
▁곳	-380
▁세	-381
▁쓰	-382
리는	-383
지는	-384
▁간	-385
니까	-386
▁많은	-387
▁하지	-388
▁걱	-389
▁머	-390
자고	-391
하기	-392
▁걱정	-393
▁떠	-394
▁믿	-395
▁알아	-396
▁속	-397
▁취	-398
▁함	-399
▁싫어	-400
입니다	-401
▁바랍니다	-402
▁원	-403
나요	-404
▁상대	-405
▁분	-406
▁표	-407
하는게	-408
▁영	-409
▁그래	-410
▁사랑하는	-411
▁관심	-412
▁기억	-413
▁힘들어	-414
▁쉽	-415
▁해요	-416
▁데이트	-417
▁,	-418
▁남자친구	-419
적인	-420
▁상처	-421
▁생각해요	-422
▁말해보세요	-423
▁맘	-424
▁장	-425
▁커	-426
이랑	-427
▁언제	-428
▁축	-429
로운	-430
스러	-431
▁뭘	-432
▁입	-433
▁맛있	-434
▁어떨	-435
▁여행	-436
▁충분	-437
▁좋겠어요	-438
다가	-439
하죠	-440
▁무슨	-441
▁어떤	-442
▁있었	-443
▁앞	-444
▁엄	-445
▁용	-446
▁학	-447
▁있으면	-448
▁친구가	-449
▁외	-450
▁최	-451
이었	-452
텐데	-453
▁그냥	-454
▁대화	-455
▁카톡	-456
▁할까	-457
▁함께	-458
▁사람은	-459
▁2	-460
▁구	-461
인지	-462
▁않는	-463
▁이렇게	-464
▁발	-465
부터	-466
▁나만	-467
▁물어	-468
▁안돼	-469
▁헤어졌	-470
▁3	-471
▁놓	-472
▁슬	-473
▁싸	-474
▁요	-475
▁내일	-476
▁오래	-477
▁약	-478
하네	-479
▁누구	-480
▁않을	-481
▁표현	-482
▁몰라요	-483
▁힘드네	-484
▁머리	-485
▁이해	-486
▁궁	-487
▁열	-488
▁점	-489
라도	-490
▁여친	-491
▁전화	-492
겠지만	-493
▁자신을	-494
▁과	-495
가는	-496
▁사랑은	-497
▁길	-498
▁설	-499
리고	-500
▁결정	-501
▁궁금	-502
▁많아	-503
▁운동	-504
▁이유	-505
▁하면	-506
▁됐	-507
▁어디	-508
▁사람을	-509
▁새로운	-510
▁듯	-511
▁별	-512
▁호	-513
기도	-514
트레	-515
▁선택	-516
▁아프	-517
▁한달	-518
▁어떨까요	-519
▁늦	-520
▁단	-521
▁즐	-522
▁처	-523
▁돌아	-524
▁부담	-525
▁썸남	-526
▁스트레	-527
▁있는데	-528
▁생각해보세요	-529
▁복	-530
했던	-531
▁미련	-532
▁안되	-533
▁주세요	-534
▁깨	-535
▁치	-536
어도	-537
▁생겼	-538
▁해도	-539
▁잡	-540
▁타는	-541
▁회사	-542
▁나한테	-543
▁죽	-544
▁노력	-545
▁말고	-546
▁유	-547
▁챙	-548
▁첫	-549
개월	-550
었어	-551
해주	-552
▁보내	-553
▁직접	-554
▁아니에요	-555
거나	-556
나봐	-557
▁가고	-558
▁그만	-559
▁다가	-560
▁따라	-561
▁만큼	-562
▁생각나	-563
▁순	-564
▁질	-565
▁때문	-566
▁않아	-567
▁인연	-568
▁지나	-569
았는데	-570
▁생각이	-571
▁연락이	-572
▁좋겠네요	-573
▁갈	-574
▁막	-575
▁번	-576
▁벌	-577
▁와	-578
▁휴	-579
처럼	-580
▁그러	-581
▁싶은	-582
▁어떡	-583
▁생각을	-584
움이	-585
이나	-586
▁만날	-587
▁않았	-588
▁이젠	-589
▁재미	-590
▁갑	-591
▁경	-592
▁멋	-593
▁항	-594
군요	-595
▁그게	-596
▁소개	-597
▁어려	-598
▁항상	-599
으세요	-600
▁같은데	-601
▁괜찮아	-602
▁신경쓰	-603
▁이별을	-604
나봅니다	-605
▁스트레스	-606
가요	-607
해지	-608
▁남친	-609
▁쉽지	-610
▁인생	-611
▁잘못	-612
▁저는	-613
▁그렇게	-614
▁마음에	-615
▁짝남이	-616
▁완	-617
▁허	-618
▁같은	-619
▁문제	-620
▁아파	-621
▁조심	-622
적으로	-623
기를	-624
▁노래	-625
▁처음	-626
했는데	-627
▁바라요	-628
▁좋겠다	-629
인가봐요	-630
▁모르겠어	-631
▁몸	-632
▁봐	-633
▁붙	-634
거라	-635
보고	-636
어나	-637
▁느낌	-638
▁상황	-639
▁어때	-640
하네요	-641
하는데	-642
▁난	-643
하다	-644
▁때가	-645
▁우리	-646
리세요	-647
려보세요	-648
▁볼	-649
는지	-650
졌어	-651
▁나이	-652
▁달라	-653
▁만났	-654
▁변화	-655
▁축하	-656
▁중요한	-657
▁찾아보세요	-658
▁개	-659
▁꼭	-660
▁넘	-661
▁덜	-662
▁목	-663
▁손	-664
▁웃	-665
▁천	-666
▁크	-667
스럽	-668
습관	-669
▁확실	-670
▁사랑을	-671
▁결국	-672
▁답답	-673
▁위로	-674
▁챙겨	-675
▁추억	-676
▁화장	-677
▁이별은	-678
▁가보세요	-679
▁빠	-680
▁큰	-681
▁가는	-682
▁기대	-683
▁나는	-684
▁다음	-685
▁말을	-686
▁현실	-687
▁생각해	-688
▁괜찮아요	-689
▁포	-690
▁말씀	-691
▁사이	-692
▁세상	-693
▁영화	-694
▁요즘	-695
▁잊어	-696
▁힘내	-697
▁좋겠어	-698
▁충분히	-699
▁절	-700
▁친	-701
▁그렇	-702
▁대화를	-703
▁도움이	-704
▁사랑한	-705
▁태	-706
▁환	-707
▁흘	-708
감이	-709
는거	-710
만에	-711
심히	-712
지막	-713
지요	-714
▁의미	-715
▁있죠	-716
▁아직도	-717
▁여자애	-718
▁열심히	-719
▁물어보세요	-720
▁뭔	-721
▁풀	-722
걸까	-723
동안	-724
싶어	-725
았어	-726
이네	-727
▁가져	-728
▁가지	-729
▁않은	-730
▁언젠	-731
▁추천	-732
▁확인	-733
▁마음의	-734
▁마지막	-735
▁연락을	-736
▁좋을까	-737
▁밥	-738
▁종	-739
▁청	-740
것도	-741
▁말해	-742
▁먹어	-743
▁아침	-744
▁얼른	-745
▁정신	-746
▁집에	-747
이라도	-748
▁말아요	-749
▁싶은데	-750
▁식	-751
▁울	-752
▁짜	-753
보면	-754
▁가슴	-755
▁건강	-756
▁관계	-757
▁나쁜	-758
▁만남	-759
▁부모	-760
▁습관	-761
▁어제	-762
▁때문에	-763
▁사랑의	-764
▁상대방	-765
▁시간을	-766
▁오늘도	-767
▁연락해보세요	-768
▁뿐	-769
▁키	-770
▁평	-771
라면	-772
워요	-773
일까	-774
▁되었	-775
▁매일	-776
▁짝녀가	-777
▁헤어짐	-778
으니까요	-779
한가봐요	-780
▁금	-781
▁된	-782
▁몇	-783
▁솔	-784
▁프	-785
▁핸	-786
사람	-787
▁가장	-788
▁귀찮	-789
▁그리	-790
▁다르	-791
▁살고	-792
▁어느	-793
▁완전	-794
▁이런	-795
▁재회	-796
▁남자애	-797
▁당신의	-798
▁부모님	-799
▁조금만	-800
했나봐요	-801
▁있나봐요	-802
▁긴	-803
▁빨	-804
▁온	-805
▁졸	-806
▁티	-807
자기	-808
▁나가	-809
▁떨어	-810
▁바람	-811
▁아닐	-812
▁제일	-813
▁커피	-814
▁핸드	-815
릴게요	-816
▁조금씩	-817
▁해볼까	-818
▁헤어지고	-819
▁딱	-820
▁잔	-821
▁착	-822
감을	-823
신이	-824
▁대한	-825
▁못하	-826
▁알려	-827
▁얼마	-828
▁진심	-829
하면서	-830
▁남자가	-831
▁사람들	-832
▁오세요	-833
▁좋아하	-834
▁로	-835
▁작	-836
▁존	-837
▁통	-838
더니	-839
리가	-840
한지	-841
▁같애	-842
▁거라	-843
▁많았	-844
▁모든	-845
▁성공	-846
▁순간	-847
▁자연	-848
▁잘할	-849
▁그래도	-850
▁기다리	-851
▁핸드폰	-852
▁글	-853
▁꾸	-854
▁초	-855
▁파	-856
스로	-857
▁맞는	-858
▁살아	-859
▁엄마	-860
▁연습	-861
▁인정	-862
▁주말	-863
▁한번	-864
스러운	-865
▁갑자기	-866
▁이별이	-867
▁자신의	-868
▁사람이랑	-869
▁중요해요	-870
▁조심하세요	-871
▁망	-872
▁야	-873
폭풍	-874
▁되는	-875
▁사진	-876
▁엄청	-877
▁없을	-878
▁잊혀	-879
▁모르는	-880
▁합니다	-881
▁했는데	-882
▁사람들이	-883
▁알았는데	-884
▁강	-885
▁네	-886
▁음	-887
수록	-888
적이	-889
지지	-890
▁가끔	-891
▁모두	-892
▁복잡	-893
▁얼굴	-894
▁없네	-895
▁예뻐	-896
▁예의	-897
▁왔어	-898
▁재밌	-899
▁스스로	-900
▁여자가	-901
▁좋아할	-902
▁필요한	-903
하겠어요	-904
▁갖	-905
▁욕	-906
▁짧	-907
▁탈	-908
▁날씨	-909
▁남편	-910
▁상관	-911
▁쉬운	-912
▁자주	-913
▁지내	-914
달라고	-915
마세요	-916
▁만나고	-917
▁소개팅	-918
▁정리가	-919
▁짝남한테	-920
▁5	-921
▁극	-922
▁면	-923
같은	-924
왔어	-925
▁떠나	-926
▁마시	-927
▁뭘까	-928
▁보는	-929
▁보이	-930
▁아픈	-931
▁알바	-932
▁저랑	-933
었는데	-934
▁기분이	-935
▁당신이	-936
▁사람한테	-937
▁4	-938
▁끊	-939
▁듣	-940
▁옷	-941
▁흐	-942
거리	-943
기로	-944
다니	-945
력이	-946
없이	-947
▁눈물	-948
▁되나	-949
▁무서	-950
▁무시	-951
▁실수	-952
▁짜증	-953
▁피곤	-954
▁싶어요	-955
▁어떡해	-956
▁연락해	-957
▁있다면	-958
▁잘하는	-959
▁후폭풍	-960
▁생각보다	-961
▁모르겠어요	-962
▁견	-963
▁꽃	-964
▁둘	-965
▁똑	-966
▁월	-967
▁줘	-968
가고	-969
건가	-970
려요	-971
만큼	-972
쁘게	-973
해질	-974
▁나와	-975
▁도와	-976
▁별로	-977
▁아픔	-978
▁정도	-979
▁기다려	-980
▁만들어	-981
▁오늘은	-982
▁지금도	-983
▁받아들이	-984
▁본	-985
▁봄	-986
▁코	-987
▁흔	-988
일째	-989
지가	-990
천히	-991
해줘	-992
▁가족	-993
▁걸까	-994
▁극복	-995
▁끝나	-996
▁모습	-997
▁뭐가	-998
▁붙잡	-999
▁빨리	-1000
▁사는	-1001
▁솔직	-1002
▁지켜	-1003
▁차단	-1004
▁학교	-1005
▁괜찮은	-1006
▁사랑에	-1007
▁잘하고	-1008
▁천천히	-1009
▁친구랑	-1010
▁6	-1011
▁갔	-1012
▁뒤	-1013
▁밤	-1014
▁빌	-1015
▁양	-1016
▁은	-1017
▁출	-1018
같아	-1019
마다	-1020
시간	-1021
▁감기	-1022
▁것이	-1023
▁그분	-1024
▁끝났	-1025
▁다녀	-1026
▁따뜻	-1027
▁마주	-1028
▁벌써	-1029
▁보여	-1030
▁설레	-1031
▁자기	-1032
▁점점	-1033
▁환승	-1034
기까지	-1035
▁맛있게	-1036
▁인연이	-1037
▁확신이	-1038
▁익	-1039
기는	-1040
이면	-1041
주는	-1042
▁내려	-1043
▁두려	-1044
▁만난	-1045
▁살펴	-1046
▁아이	-1047
▁운명	-1048
▁직장	-1049
▁하죠	-1050
▁힘이	-1051
겠지요	-1052
▁다가가	-1053
▁당신을	-1054
▁사람도	-1055
▁사세요	-1056
▁자신이	-1057
▁하는데	-1058
드릴게요	-1059
▁담	-1060
▁병	-1061
▁책	-1062
거야	-1063
라는	-1064
하나	-1065
▁날이	-1066
▁놓아	-1067
▁배우	-1068
▁봐요	-1069
▁잠시	-1070
▁주변	-1071
▁행동	-1072
▁이유가	-1073
▁첫사랑	-1074
▁하나씩	-1075
▁힘들었	-1076
하겠네요	-1077
▁연락하고	-1078
▁힘내세요	-1079
▁군	-1080
▁능	-1081
▁멀	-1082
▁베	-1083
▁응	-1084
▁찍	-1085
어가	-1086
있는	-1087
▁게임	-1088
▁나서	-1089
▁눈을	-1090
▁되길	-1091
▁성격	-1092
▁안녕	-1093
▁익숙	-1094
▁일찍	-1095
스러워	-1096
▁믿어요	-1097
▁사귀고	-1098
▁아닌데	-1099
▁언젠간	-1100
▁친구들	-1101
▁많았어요	-1102
▁뿐이에요	-1103
▁서로에게	-1104
▁신경쓰지	-1105
▁괴	-1106
▁교	-1107
▁맨	-1108
▁메	-1109
▁얘	-1110
▁에	-1111
로워	-1112
리지	-1113
이별	-1114
▁나도	-1115
▁나을	-1116
▁놀러	-1117
▁도전	-1118
▁마련	-1119
▁무엇	-1120
▁받고	-1121
▁스타	-1122
▁슬픈	-1123
▁않죠	-1124
▁있나	-1125
▁즐거	-1126
▁지났	-1127
▁집착	-1128
다보면	-1129
▁힘들다	-1130
▁해주세요	-1131
▁깊	-1132
▁명	-1133
남친	-1134
래도	-1135
에도	-1136
여친	-1137
▁가서	-1138
▁거죠	-1139
▁관리	-1140
▁나아	-1141
▁나오	-1142
▁느껴	-1143
▁아는	-1144
▁오랜	-1145
▁이겨	-1146
▁자존	-1147
▁주무	-1148
▁후련	-1149
▁만나는	-1150
▁행복해	-1151
▁힘들게	-1152
▁있었나봐요	-1153
▁곧	-1154
▁법	-1155
▁삶	-1156
▁척	-1157
▁헷	-1158
생활	-1159
어야	-1160
이는	-1161
하길	-1162
▁거짓	-1163
▁끝이	-1164
▁다행	-1165
▁말이	-1166
▁뭐야	-1167
▁알게	-1168
▁여유	-1169
▁연인	-1170
▁용기	-1171
▁우울	-1172
▁위해	-1173
▁잊지	-1174
▁자체	-1175
▁최고	-1176
▁카페	-1177
▁포기	-1178
▁헷갈	-1179
이었을	-1180
▁생각할	-1181
▁원하는	-1182
▁이상형	-1183
▁일어나	-1184
▁좋아해	-1185
▁못하겠어	-1186
▁아무것도	-1187
▁아무래도	-1188
▁이별한지	-1189
▁낫	-1190
▁봤	-1191
▁접	-1192
▁향	-1193
르고	-1194
사를	-1195
여행	-1196
정이	-1197
중에	-1198
지고	-1199
▁꿈에	-1200
▁눈이	-1201
▁되지	-1202
▁보면	-1203
▁부족	-1204
▁비싸	-1205
▁소중	-1206
▁썸타	-1207
▁없이	-1208
▁응원	-1209
▁전에	-1210
▁했어	-1211
했어요	-1212
▁거짓말	-1213
▁곳으로	-1214
▁귀찮아	-1215
▁먹으면	-1216
▁보고싶	-1217
▁여친이	-1218
▁이별후	-1219
▁지금은	-1220
여보세요	-1221
▁먹어야지	-1222
▁사랑했던	-1223
▁주무세요	-1224
▁까	-1225
▁빼	-1226
▁읽	-1227
▁증	-1228
버렸	-1229
져요	-1230
한데	-1231
▁금방	-1232
▁늦지	-1233
▁다를	-1234
▁데려	-1235
▁미안	-1236
▁보통	-1237
▁부러	-1238
▁생일	-1239
▁싸우	-1240
▁없죠	-1241
▁죽을	-1242
▁그녀를	-1243
▁나중에	-1244
▁많아요	-1245
▁사귀는	-1246
▁싶네요	-1247
▁아니라	-1248
▁않아도	-1249
▁예의가	-1250
▁전남친	-1251
▁친구를	-1252
▁필요해	-1253
었나봐요	-1254
▁괜찮을까	-1255
▁좋아하게	-1256
▁좋아하면	-1257
▁필요해요	-1258
▁가져보세요	-1259
▁근	-1260
▁냉	-1261
▁벗	-1262
▁숨	-1263
▁써	-1264
▁쓸	-1265
더라	-1266
리를	-1267
사친	-1268
야죠	-1269
움을	-1270
▁건지	-1271
▁고생	-1272
▁대로	-1273
▁맨날	-1274
▁미리	-1275
▁받는	-1276
▁부분	-1277
▁소식	-1278
▁애가	-1279
▁어렵	-1280
▁우산	-1281
▁월급	-1282
▁일을	-1283
▁잊는	-1284
▁작은	-1285
▁잠이	-1286
▁주는	-1287
▁중에	-1288
▁진정	-1289
▁충전	-1290
스럽게	-1291
이라면	-1292
해주는	-1293
했으면	-1294
▁감정을	-1295
▁남편이	-1296
▁당신은	-1297
▁때까지	-1298
▁만나지	-1299
▁만났어	-1300
▁없네요	-1301
▁이별의	-1302
▁전여친	-1303
겠습니다	-1304
▁중요하지	-1305
▁짝녀한테	-1306
▁친구한테	-1307
▁살펴보세요	-1308
▁헤어졌습니다	-1309
▁확인해보세요	-1310
▁높	-1311
▁산	-1312
▁폰	-1313
건지	-1314
대요	-1315
밖에	-1316
쇼핑	-1317
아서	-1318
으니	-1319
이가	-1320
장이	-1321
하려	-1322
하시	-1323
▁기회	-1324
▁되어	-1325
▁드는	-1326
▁로맨	-1327
▁바쁜	-1328
▁받을	-1329
▁방학	-1330
▁비밀	-1331
▁생길	-1332
▁쉬고	-1333
▁시험	-1334
▁아름	-1335
▁안나	-1336
▁안해	-1337
▁알고	-1338
▁앞에	-1339
▁약속	-1340
▁자책	-1341
▁잠깐	-1342
▁종교	-1343
▁편이	-1344
▁하늘	-1345
▁흘렀	-1346
야겠다	-1347
하겠죠	-1348
해야지	-1349
▁가세요	-1350
▁관심이	-1351
▁누구나	-1352
▁변화가	-1353
▁언제나	-1354
▁예쁘게	-1355
▁해봐요	-1356
▁확실한	-1357
▁힘들죠	-1358
▁고민이야	-1359
▁남자애가	-1360
▁연락해도	-1361
▁좋아하는데	-1362
▁사랑해주세요	-1363
겠네	-1364
기만	-1365
당히	-1366
들어	-1367
들은	-1368
리게	-1369
하니	-1370
▁가기	-1371
▁꾸준	-1372
▁끝내	-1373
▁돈이	-1374
▁마셔	-1375
▁맞춰	-1376
▁멋진	-1377
▁미치	-1378
▁바로	-1379
▁바쁘	-1380
▁분위	-1381
▁시원	-1382
▁않고	-1383
▁이번	-1384
▁이어	-1385
▁장난	-1386
▁즐기	-1387
▁타고	-1388
▁허전	-1389
이라는	-1390
▁고민이	-1391
▁궁금해	-1392
▁그래요	-1393
▁맛있는	-1394
▁사랑할	-1395
▁생각만	-1396
▁아닌지	-1397
▁알려줘	-1398
▁없다면	-1399
▁재미있	-1400
▁즐거운	-1401
▁같습니다	-1402
▁사랑하고	-1403
▁짝남이랑	-1404
▁힘들어요	-1405
▁골	-1406
▁옆	-1407
▁채	-1408
▁칭	-1409
들을	-1410
디어	-1411
일이	-1412
퇴근	-1413
▁당연	-1414
▁됐어	-1415
▁되네	-1416
▁드라	-1417
▁먹을	-1418
▁바라	-1419
▁바보	-1420
▁보지	-1421
▁쇼핑	-1422
▁스킨	-1423
▁시켜	-1424
▁어울	-1425
▁어쩌	-1426
▁여러	-1427
▁이러	-1428
▁절대	-1429
▁존중	-1430
▁취미	-1431
▁칭찬	-1432
▁해결	-1433
더라고	-1434
잖아요	-1435
줬으면	-1436
▁그리고	-1437
▁드디어	-1438
▁못하는	-1439
▁받아들	-1440
▁봅니다	-1441
▁상처받	-1442
▁이제는	-1443
▁있는지	-1444
▁좋겠죠	-1445
▁좋은데	-1446
▁중인데	-1447
▁여자애가	-1448
▁친구들이	-1449
▁힘들겠지만	-1450
▁등	-1451
가를	-1452
줄까	-1453
해져	-1454
▁가면	-1455
▁가야	-1456
▁간다	-1457
▁경우	-1458
▁곳이	-1459
▁동거	-1460
▁때도	-1461
▁마요	-1462
▁문자	-1463
▁뭔가	-1464
▁뭔지	-1465
▁미워	-1466
▁싫다	-1467
▁안경	-1468
▁않길	-1469
▁예민	-1470
▁예쁜	-1471
▁이성	-1472
▁일은	-1473
▁잊고	-1474
▁자격	-1475
▁조언	-1476
▁지쳤	-1477
▁차분	-1478
▁하셨	-1479
▁해서	-1480
▁헤아	-1481
보는게	-1482
해지는	-1483
▁가슴이	-1484
▁괜찮을	-1485
▁두려워	-1486
▁로맨틱	-1487
▁뭐라고	-1488
▁미련이	-1489
▁사람에	-1490
▁사랑해	-1491
▁시간은	-1492
▁어느덧	-1493
▁어려워	-1494
▁짜증나	-1495
더라고요	-1496
신가봐요	-1497
▁거기까지	-1498
▁아닐까요	-1499
▁않는다면	-1500
▁있습니다	-1501
▁자책하지	-1502
▁독	-1503
▁밀	-1504
▁삼	-1505
▁역	-1506
▁택	-1507
▁터	-1508
년이	-1509
받고	-1510
음이	-1511
이밍	-1512
이지	-1513
자리	-1514
전히	-1515
한게	-1516
해졌	-1517
▁10	-1518
▁것을	-1519
▁기본	-1520
▁까먹	-1521
▁나랑	-1522
▁되고	-1523
▁두달	-1524
▁못해	-1525
▁번호	-1526
▁보러	-1527
▁볼까	-1528
▁서운	-1529
▁슬프	-1530
▁썸녀	-1531
▁어쩔	-1532
▁오는	-1533
▁취직	-1534
▁커플	-1535
▁태어	-1536
▁해주	-1537
답니다	-1538
드려요	-1539
▁그대로	-1540
▁그러면	-1541
▁마음도	-1542
▁마음은	-1543
▁문제가	-1544
▁방법이	-1545
▁안되는	-1546
▁타이밍	-1547
▁헤어져	-1548
가봅니다	-1549
아보세요	-1550
▁물어보는	-1551
▁사랑하면	-1552
▁생각하고	-1553
▁축하해요	-1554
▁다행이에요	-1555
▁받아들이는	-1556
▁부담스러워	-1557
▁자연스러운	-1558
▁좋아하는게	-1559
▁꿨	-1560
▁뜻	-1561
▁멈	-1562
▁멍	-1563
▁쌓	-1564
▁클	-1565
▁특	-1566
▁희	-1567
니가	-1568
덤덤	-1569
때는	-1570
리스	-1571
마스	-1572
보여	-1573
생님	-1574
스크	-1575
식을	-1576
심해	-1577
야할	-1578
연애	-1579
자는	-1580
했다	-1581
▁갖고	-1582
▁군대	-1583
▁귀여	-1584
▁떨려	-1585
▁뭐든	-1586
▁배워	-1587
▁불편	-1588
▁사과	-1589
▁상담	-1590
▁소리	-1591
▁일주	-1592
▁잊을	-1593
▁자유	-1594
▁저를	-1595
▁적응	-1596
▁졸업	-1597
▁집중	-1598
▁최선	-1599
▁흔들	-1600
가세요	-1601
오세요	-1602
▁가지고	-1603
▁같네요	-1604
▁것보다	-1605
▁관심을	-1606
▁꾸준히	-1607
▁능력이	-1608
▁무서워	-1609
▁선생님	-1610
▁썸남이	-1611
▁어려운	-1612
▁용기를	-1613
▁위로해	-1614
▁이상한	-1615
▁잊어버	-1616
▁적당히	-1617
▁준비가	-1618
▁충분한	-1619
▁화장실	-1620
상이에요	-1621
▁기다리고	-1622
▁다음에는	-1623
▁말하세요	-1624
▁사람마다	-1625
▁않았으면	-1626
▁진심으로	-1627
▁헤어졌어	-1628
▁후회하지	-1629
▁사람이네요	-1630
▁힘들겠어요	-1631
▁삭	-1632
▁샀	-1633
냄새	-1634
만의	-1635
시켜	-1636
오네	-1637
치가	-1638
한거	-1639
한다	-1640
함이	-1641
▁고마	-1642
▁그건	-1643
▁끝을	-1644
▁나온	-1645
▁누가	-1646
▁당당	-1647
▁대학	-1648
▁두근	-1649
▁몰랐	-1650
▁몸이	-1651
▁배려	-1652
▁병원	-1653
▁삭제	-1654
▁생기	-1655
▁어색	-1656
▁연예	-1657
▁오빠	-1658
▁원래	-1659
▁위험	-1660
▁이기	-1661
▁일어	-1662
▁잠수	-1663
▁잠을	-1664
▁적극	-1665
▁좋았	-1666
▁질투	-1667
▁집안	-1668
▁청소	-1669
▁출근	-1670
▁키우	-1671
하려고	-1672
▁가야지	-1673
▁감정이	-1674
▁그녀가	-1675
▁그사람	-1676
▁남친이	-1677
▁받았어	-1678
▁사람과	-1679
▁스킨십	-1680
▁스타일	-1681
▁있나요	-1682
▁있네요	-1683
▁저에게	-1684
▁제대로	-1685
▁하는게	-1686
았나봐요	-1687
▁사람에게	-1688
▁않을까요	-1689
▁있겠어요	-1690
▁있잖아요	-1691
▁자신에게	-1692
▁후폭풍이	-1693
▁만나보세요	-1694
▁좋아하는지	-1695
▁각	-1696
▁걷	-1697
▁권	-1698
▁꼬	-1699
▁셀	-1700
▁철	-1701
▁체	-1702
▁톡	-1703
▁투	-1704
▁팔	-1705
가지	-1706
내고	-1707
내서	-1708
년째	-1709
놓고	-1710
려면	-1711
르는	-1712
사가	-1713
시길	-1714
시는	-1715
었다	-1716
이요	-1717
인거	-1718
▁감사	-1719
▁경험	-1720
▁꿈을	-1721
▁나눠	-1722
▁놀이	-1723
▁다이	-1724
▁담배	-1725
▁당황	-1726
▁무너	-1727
▁무뎌	-1728
▁발표	-1729
▁버려	-1730
▁버텨	-1731
▁보냈	-1732
▁본인	-1733
▁쉽게	-1734
▁싫은	-1735
▁안타	-1736
▁애랑	-1737
▁얘기	-1738
▁어플	-1739
▁올려	-1740
▁좋다	-1741
▁좋지	-1742
▁착각	-1743
▁편지	-1744
▁프로	-1745
▁하기	-1746
됩니다	-1747
인가봐	-1748
하다고	-1749
▁데려다	-1750
▁말하는	-1751
▁머리가	-1752
▁사람의	-1753
▁상황을	-1754
▁서로를	-1755
▁성격이	-1756
▁아름다	-1757
▁안하고	-1758
▁연예인	-1759
▁완전히	-1760
▁있어도	-1761
▁좋아한	-1762
▁하나도	-1763
▁해보는	-1764
▁행복한	-1765
▁후회할	-1766
▁되겠네요	-1767
▁만나자고	-1768
▁보고싶어	-1769
▁일이에요	-1770
▁자신감을	-1771
▁그런가봐요	-1772
▁겨	-1773
▁났	-1774
▁늘	-1775
▁판	-1776
고생	-1777
구나	-1778
리면	-1779
만이	-1780
상을	-1781
성이	-1782
시다	-1783
어머	-1784
없는	-1785
었네	-1786
워질	-1787
이길	-1788
장을	-1789
지네	-1790
질까	-1791
▁같네	-1792
▁과정	-1793
▁귀엽	-1794
▁기운	-1795
▁끝은	-1796
▁나타	-1797
▁동생	-1798
▁드시	-1799
▁말도	-1800
▁먹는	-1801
▁바꿔	-1802
▁바빠	-1803
▁발전	-1804
▁부탁	-1805
▁사실	-1806
▁살짝	-1807
▁새벽	-1808
▁생긴	-1809
▁속이	-1810
▁싶지	-1811
▁안됐	-1812
▁우선	-1813
▁위한	-1814
▁인사	-1815
▁일도	-1816
▁있고	-1817
▁점심	-1818
▁존재	-1819
▁주고	-1820
▁차이	-1821
▁피부	-1822
▁해줘	-1823
으면서	-1824
인가요	-1825
▁그리워	-1826
▁기다릴	-1827
▁놀아요	-1828
▁눈물이	-1829
▁돌아오	-1830
▁맘고생	-1831
▁못하고	-1832
▁무엇이	-1833
▁아무리	-1834
▁안들어	-1835
▁연습을	-1836
▁한동안	-1837
▁호감이	-1838
▁혼자가	-1839
▁힘들지	-1840
리스마스	-1841
했습니다	-1842
▁만나세요	-1843
▁놓아주세요	-1844
▁생각하세요	-1845
▁축하드려요	-1846
▁말씀해주세요	-1847
▁시작해보세요	-1848
▁7	-1849
▁깔	-1850
▁꺼	-1851
▁뜨	-1852
▁리	-1853
▁센	-1854
▁침	-1855
▁형	-1856
나는	-1857
냐고	-1858
력을	-1859
말고	-1860
봐도	-1861
상이	-1862
어트	-1863
었을	-1864
웨딩	-1865
음을	-1866
이다	-1867
줬어	-1868
▁가치	-1869
▁갈까	-1870
▁걸로	-1871
▁계획	-1872
▁고쳐	-1873
▁괜히	-1874
▁괴롭	-1875
▁그랬	-1876
▁그럼	-1877
▁다니	-1878
▁듣고	-1879
▁따로	-1880
▁떠난	-1881
▁면접	-1882
▁목소	-1883
▁못한	-1884
▁무섭	-1885
▁바뀌	-1886
▁받지	-1887
▁배고	-1888
▁버스	-1889
▁비가	-1890
▁살까	-1891
▁속상	-1892
▁쉬는	-1893
▁쓰레	-1894
▁애매	-1895
▁없나	-1896
▁없다	-1897
▁없애	-1898
▁우연	-1899
▁의지	-1900
▁이름	-1901
▁이용	-1902
▁자고	-1903
▁저녁	-1904
▁주면	-1905
▁지우	-1906
▁지쳐	-1907
▁퇴근	-1908
▁프사	-1909
▁피해	-1910
▁학원	-1911
▁한잔	-1912
▁했던	-1913
다가도	-1914
두세요	-1915
드세요	-1916
하다면	-1917
▁가자고	-1918
▁남자를	-1919
▁되는데	-1920
▁만나서	-1921
▁아는데	-1922
▁외로워	-1923
▁이상해	-1924
▁지나갈	-1925
▁추억이	-1926
▁친구로	-1927
▁괜찮아졌	-1928
▁괜찮아질	-1929
▁다이어트	-1930
▁생각하는	-1931
▁연락하면	-1932
▁오랜만에	-1933
▁좋을텐데	-1934
하지마세요	-1935
▁모르겠네요	-1936
▁사랑하는데	-1937
▁사랑한다고	-1938
▁여자친구와	-1939
▁자연스럽게	-1940
▁크리스마스	-1941
▁현상이에요	-1942
▁말씀해보세요	-1943
▁이야기해보세요	-1944
▁8	-1945
▁낭	-1946
▁뒷	-1947
▁뿌	-1948
▁억	-1949
▁업	-1950
▁트	-1951
▁페	-1952
느라	-1953
됐어	-1954
리기	-1955
서관	-1956
소한	-1957
어서	-1958
였어	-1959
주가	-1960
지면	-1961
치고	-1962
치는	-1963
했을	-1964
▁가벼	-1965
▁간절	-1966
▁거야	-1967
▁거절	-1968
▁건가	-1969
▁견디	-1970
▁꿈이	-1971
▁냄새	-1972
▁누군	-1973
▁눈에	-1974
▁느끼	-1975
▁대해	-1976
▁돈을	-1977
▁되면	-1978
▁많죠	-1979
▁미래	-1980
▁바뀔	-1981
▁반복	-1982
▁불안	-1983
▁비교	-1984
▁사라	-1985
▁소화	-1986
▁신혼	-1987
▁심해	-1988
▁안와	-1989
▁안좋	-1990
▁영원	-1991
▁오해	-1992
▁이거	-1993
▁이사	-1994
▁이혼	-1995
▁인형	-1996
▁일상	-1997
▁있지	-1998
▁주지	-1999
▁취업	-2000
일지도	-2001
하니까	-2002
해봐요	-2003
해지면	-2004
▁결혼식	-2005
▁나이가	-2006
▁날씨가	-2007
▁내일은	-2008
▁도서관	-2009
▁될까요	-2010
▁만나면	-2011
▁뭐하지	-2012
▁분위기	-2013
▁붙잡고	-2014
▁상처를	-2015
▁선택일	-2016
▁소중한	-2017
▁쉬세요	-2018
▁안해도	-2019
▁앞에서	-2020
▁앞으로	-2021
▁어쩌지	-2022
▁없는데	-2023
▁여유를	-2024
▁연락처	-2025
▁일주일	-2026
▁장거리	-2027
▁필요할	-2028
▁했으면	-2029
▁호감을	-2030
▁확실히	-2031
을거예요	-2032
▁기다리는	-2033
▁만났는데	-2034
▁부담스럽	-2035
▁생각나는	-2036
▁않았어요	-2037
▁연락하지	-2038
▁좋아할까	-2039
▁궁금하네요	-2040
▁사람이에요	-2041
▁지켜보세요	-2042
▁짝사랑하는	-2043
▁들어드릴게요	-2044
▁끄	-2045
▁됨	-2046
▁든	-2047
▁딸	-2048
▁뻔	-2049
▁썼	-2050
▁쐬	-2051
▁염	-2052
▁잤	-2053
▁짐	-2054
▁찌	-2055
▁틀	-2056
▁헛	-2057
간이	-2058
거려	-2059
러가	-2060
세먼	-2061
심이	-2062
었던	-2063
요일	-2064
으시	-2065
인듯	-2066
주지	-2067
하셨	-2068
할지	-2069
▁가까	-2070
▁갑작	-2071
▁개인	-2072
▁거울	-2073
▁결과	-2074
▁기념	-2075
▁깔끔	-2076
▁나의	-2077
▁내는	-2078
▁느려	-2079
▁대단	-2080
▁되죠	-2081
▁때는	-2082
▁멋있	-2083
▁못할	-2084
▁미친	-2085
▁불러	-2086
▁비슷	-2087
▁사귈	-2088
▁슬퍼	-2089
▁썸이	-2090
▁않네	-2091
▁야근	-2092
▁역시	-2093
▁옆에	-2094
▁완벽	-2095
▁왔다	-2096
▁잡고	-2097
▁조급	-2098
▁졸려	-2099
▁차별	-2100
▁치과	-2101
▁크게	-2102
▁호감	-2103
듭니다	-2104
면서도	-2105
으려고	-2106
적이든	-2107
▁가능할	-2108
▁걱정돼	-2109
▁걱정되	-2110
▁그녀의	-2111
▁꿈에서	-2112
▁달라고	-2113
▁때네요	-2114
▁마스크	-2115
▁무서운	-2116
▁벗어나	-2117
▁상황이	-2118
▁시작이	-2119
▁쓰레기	-2120
▁아무도	-2121
▁않으면	-2122
▁어디서	-2123
▁어때요	-2124
▁얼마나	-2125
▁엄마가	-2126
▁연애는	-2127
▁예뻐요	-2128
▁왔는데	-2129
▁저도요	-2130
▁집안일	-2131
▁집에서	-2132
▁타는데	-2133
▁편하게	-2134
▁고민하고	-2135
▁사랑해서	-2136
▁생각나네	-2137
▁썸남한테	-2138
▁어떡하지	-2139
▁연락하는	-2140
▁좋아하고	-2141
▁친구들과	-2142
▁필요하죠	-2143
▁하다보면	-2144
▁했습니다	-2145
▁헤어져야	-2146
▁헷갈리게	-2147
▁흘렀네요	-2148
▁남자친구의	-2149
▁알아보세요	-2150
▁여자친구의	-2151
▁이야기네요	-2152
▁있으니까요	-2153
▁전해보세요	-2154
▁지쳤나봐요	-2155
▁노력해보세요	-2156
▁이해해주세요	-2157
▁잊어버리세요	-2158
▁갚	-2159
▁긍	-2160
▁농	-2161
▁움	-2162
▁죄	-2163
▁창	-2164
▁춥	-2165
▁패	-2166
▁푹	-2167
▁혹	-2168
같이	-2169
남자	-2170
될까	-2171
러워	-2172
려도	-2173
머리	-2174
먹고	-2175
방법	-2176
싶다	-2177
어진	-2178
여자	-2179
오는	-2180
이고	-2181
주고	-2182
준비	-2183
할때	-2184
호흡	-2185
▁거지	-2186
▁견뎌	-2187
▁고통	-2188
▁공허	-2189
▁권태	-2190
▁긍정	-2191
▁기울	-2192
▁깨달	-2193
▁꿨어	-2194
▁나올	-2195
▁남았	-2196
▁남을	-2197
▁남의	-2198
▁놀고	-2199
▁놀아	-2200
▁동물	-2201
▁라면	-2202
▁마무	-2203
▁만드	-2204
▁말투	-2205
▁말할	-2206
▁몰라	-2207
▁문득	-2208
▁보일	-2209
▁부럽	-2210
▁분명	-2211
▁사고	-2212
▁사귄	-2213
▁사야	-2214
▁사회	-2215
▁샀어	-2216
▁상태	-2217
▁생활	-2218
▁선톡	-2219
▁시계	-2220
▁실망	-2221
▁쓰는	-2222
▁아까	-2223
▁않게	-2224
▁알았	-2225
▁야경	-2226
▁어서	-2227
▁어장	-2228
▁외로	-2229
▁원망	-2230
▁유지	-2231
▁은근	-2232
▁이건	-2233
▁이럴	-2234
▁이루	-2235
▁인간	-2236
▁전부	-2237
▁정확	-2238
▁줘도	-2239
▁지워	-2240
▁차가	-2241
▁추워	-2242
▁친한	-2243
▁택시	-2244
▁텐데	-2245
▁판단	-2246
▁평소	-2247
▁혹시	-2248
▁화가	-2249
▁희망	-2250
립니다	-2251
었어요	-2252
으니까	-2253
한다면	-2254
해볼까	-2255
▁결정을	-2256
▁그동안	-2257
▁그래서	-2258
▁기념일	-2259
▁남사친	-2260
▁당신도	-2261
▁먹을까	-2262
▁무덤덤	-2263
▁미세먼	-2264
▁변화를	-2265
▁상처가	-2266
▁생겼어	-2267
▁서로의	-2268
▁실감이	-2269
▁심호흡	-2270
▁썸인지	-2271
▁썸타는	-2272
▁아침에	-2273
▁안타깝	-2274
▁언제쯤	-2275
▁없다고	-2276
▁여사친	-2277
▁여행을	-2278
▁연애를	-2279
▁용기가	-2280
▁이유를	-2281
▁인생은	-2282
▁있는게	-2283
▁있지만	-2284
▁잊어야	-2285
▁잊혀지	-2286
▁잘해줘	-2287
▁저한테	-2288
▁지나갔	-2289
▁지내고	-2290
▁짝녀랑	-2291
▁찾아올	-2292
▁필요는	-2293
▁할텐데	-2294
▁해야지	-2295
▁후회가	-2296
였나봐요	-2297
▁가지세요	-2298
▁남자들은	-2299
▁당당하게	-2300
▁만나는게	-2301
▁받아들여	-2302
▁버리세요	-2303
▁사람으로	-2304
▁사랑하지	-2305
▁상대방을	-2306
▁생각하지	-2307
▁아니라고	-2308
▁여기까지	-2309
▁이야기를	-2310
▁좋아해도	-2311
▁즐기세요	-2312
▁행복하게	-2313
▁회사에서	-2314
▁결정이었을	-2315
▁무시하세요	-2316
▁않으니까요	-2317
▁여자친구랑	-2318
▁헤어졌는데	-2319
▁기다려보세요	-2320
▁만들어보세요	-2321
▁걔	-2322
▁낮	-2323
▁넣	-2324
▁놔	-2325
▁딴	-2326
▁쓴	-2327
▁씻	-2328
▁컨	-2329
▁컴	-2330
거를	-2331
나게	-2332
냐에	-2333
되는	-2334
두고	-2335
디션	-2336
렸어	-2337
리네	-2338
릴까	-2339
스타	-2340
점을	-2341
지로	-2342
치지	-2343
해줄	-2344
했네	-2345
▁가요	-2346
▁거니	-2347
▁계절	-2348
▁공통	-2349
▁그것	-2350
▁길이	-2351
▁깊은	-2352
▁끝난	-2353
▁나왔	-2354
▁나은	-2355
▁놓고	-2356
▁다들	-2357
▁다양	-2358
▁더워	-2359
▁동안	-2360
▁두고	-2361
▁때론	-2362
▁때를	-2363
▁마다	-2364
▁막말	-2365
▁만든	-2366
▁먹었	-2367
▁멈추	-2368
▁반대	-2369
▁봐도	-2370
▁소문	-2371
▁소원	-2372
▁수가	-2373
▁수록	-2374
▁스키	-2375
▁신고	-2376
▁쐬고	-2377
▁아예	-2378
▁안전	-2379
▁어린	-2380
▁울적	-2381
▁음악	-2382
▁이게	-2383
▁있길	-2384
▁자세	-2385
▁조절	-2386
▁중국	-2387
▁지난	-2388
▁진급	-2389
▁짧은	-2390
▁채워	-2391
▁축구	-2392
▁취향	-2393
▁클럽	-2394
▁통보	-2395
▁편한	-2396
▁편할	-2397
▁평생	-2398
▁피할	-2399
▁하게	-2400
▁현금	-2401
▁현재	-2402
버렸어	-2403
일까요	-2404
해주고	-2405
▁가치관	-2406
▁감정에	-2407
▁거겠죠	-2408
▁그녀는	-2409
▁나왔어	-2410
▁됐으면	-2411
▁되기도	-2412
▁됩니다	-2413
▁드라마	-2414
▁똑같은	-2415
▁만난지	-2416
▁많은데	-2417
▁모르고	-2418
▁미안해	-2419
▁방학이	-2420
▁부러워	-2421
▁상대를	-2422
▁생각하	-2423
▁선물이	-2424
▁선택을	-2425
▁시어머	-2426
▁아니면	-2427
▁아프네	-2428
▁안돼요	-2429
▁안하는	-2430
▁애한테	-2431
▁언젠가	-2432
▁없어서	-2433
▁없으면	-2434
▁연락은	-2435
▁운동을	-2436
▁위로가	-2437
▁이겨낼	-2438
▁있겠죠	-2439
▁있겠지	-2440
▁자신에	-2441
▁좋지만	-2442
▁진정한	-2443
▁최고죠	-2444
▁하면서	-2445
▁한달이	-2446
▁행복할	-2447
▁가능성이	-2448
▁달라지는	-2449
▁떨어졌어	-2450
▁말이에요	-2451
▁부러워요	-2452
▁상대방이	-2453
▁생겼는데	-2454
▁아니라면	-2455
▁안됐는데	-2456
▁알면서도	-2457
▁용기내서	-2458
▁이성으로	-2459
▁자존감이	-2460
▁좋아하던	-2461
▁지금처럼	-2462
▁짝사랑이	-2463
▁충분해요	-2464
▁한동안은	-2465
▁힘들어서	-2466
▁힘들었을	-2467
▁방법이에요	-2468
▁부담스럽지	-2469
▁사람들에게	-2470
▁사랑한다면	-2471
▁여자애한테	-2472
▁응원합니다	-2473
▁있을거예요	-2474
▁적극적으로	-2475
▁정리하는게	-2476
▁헤어지자고	-2477
▁준비해보세요	-2478
▁곁	-2479
▁김	-2480
▁깎	-2481
▁넌	-2482
▁뛰	-2483
▁맥	-2484
▁밝	-2485
▁악	-2486
▁으	-2487
▁잃	-2488
▁짓	-2489
▁째	-2490
▁찬	-2491
▁케	-2492
▁합	-2493
▁헬	-2494
가네	-2495
가면	-2496
가봐	-2497
간의	-2498
겼어	-2499
데요	-2500
배가	-2501
부를	-2502
수도	-2503
시면	-2504
식이	-2505
아야	-2506
아지	-2507
없어	-2508
울까	-2509
웠어	-2510
이팅	-2511
장고	-2512
전에	-2513
전환	-2514
지를	-2515
통보	-2516
하러	-2517
하루	-2518
▁각자	-2519
▁갔다	-2520
▁거의	-2521
▁걸릴	-2522
▁것은	-2523
▁결심	-2524
▁골라	-2525
▁곳에	-2526
▁과일	-2527
▁교회	-2528
▁근처	-2529
▁글을	-2530
▁긴장	-2531
▁나면	-2532
▁나쁘	-2533
▁남겨	-2534
▁늦게	-2535
▁단단	-2536
▁달달	-2537
▁당장	-2538
▁두번	-2539
▁둘이	-2540
▁드네	-2541
▁만족	-2542
▁말까	-2543
▁말은	-2544
▁맥주	-2545
▁무리	-2546
▁바꾸	-2547
▁바꿀	-2548
▁밖에	-2549
▁변덕	-2550
▁분이	-2551
▁불행	-2552
▁사용	-2553
▁산책	-2554
▁상사	-2555
▁새로	-2556
▁설렘	-2557
▁셀프	-2558
▁시기	-2559
▁신청	-2560
▁싶네	-2561
▁쓰고	-2562
▁쓸데	-2563
▁아빠	-2564
▁알면	-2565
▁여기	-2566
▁예쁘	-2567
▁오면	-2568
▁올라	-2569
▁왜이	-2570
▁외국	-2571
▁움직	-2572
▁있네	-2573
▁자리	-2574
▁잘생	-2575
▁잘해	-2576
▁전공	-2577
▁전환	-2578
▁제발	-2579
▁중간	-2580
▁진실	-2581
▁집이	-2582
▁초대	-2583
▁최악	-2584
▁태도	-2585
▁페북	-2586
▁하네	-2587
▁화를	-2588
▁휴가	-2589
더라도	-2590
만으로	-2591
싶은데	-2592
어가네	-2593
을지도	-2594
줄게요	-2595
하거나	-2596
하지만	-2597
▁곳에서	-2598
▁공부는	-2599
▁관계를	-2600
▁그렇지	-2601
▁기회가	-2602
▁끝까지	-2603
▁나이는	-2604
▁남자는	-2605
▁내세요	-2606
▁냉장고	-2607
▁느낌이	-2608
▁따뜻한	-2609
▁떨어져	-2610
▁마무리	-2611
▁모습이	-2612
▁물어보	-2613
▁물어봐	-2614
▁뭐하고	-2615
▁믿음이	-2616
▁부족한	-2617
▁사소한	-2618
▁사이가	-2619
▁상관없	-2620
▁생각에	-2621
▁생각은	-2622
▁생각한	-2623
▁선물을	-2624
▁시원한	-2625
▁썸인데	-2626
▁아니야	-2627
▁여자를	-2628
▁온전히	-2629
▁인기가	-2630
▁있다고	-2631
▁정리할	-2632
▁제자리	-2633
▁좋겠지	-2634
▁지났네	-2635
▁진심을	-2636
▁집들이	-2637
▁차분히	-2638
▁최선의	-2639
▁파이팅	-2640
▁표현해	-2641
셨나봐요	-2642
이었으면	-2643
▁고백해도	-2644
▁그렇지만	-2645
▁기분전환	-2646
▁마음으로	-2647
▁무엇이든	-2648
▁부럽네요	-2649
▁부모님이	-2650
▁사랑으로	-2651
▁썸남이랑	-2652
▁아름다운	-2653
▁아프네요	-2654
▁없나봐요	-2655
▁이별통보	-2656
▁일이네요	-2657
▁좋겠지만	-2658
▁좋아해요	-2659
▁중요하죠	-2660
▁피하세요	-2661
▁하루하루	-2662
▁하셨네요	-2663
▁환승이별	-2664
▁힘들겠지	-2665
▁남자친구와	-2666
▁생각이에요	-2667
▁습관이에요	-2668
▁알려주세요	-2669
▁적어보세요	-2670
▁힘들겠네요	-2671
▁고백해보세요	-2672
▁사용해보세요	-2673
▁필요하겠네요	-2674
▁힘들었겠어요	-2675
▁9	-2676
▁꿀	-2677
▁놈	-2678
▁디	-2679
▁맡	-2680
▁백	-2681
▁벚	-2682
▁블	-2683
▁뽑	-2684
▁숙	-2685
▁싱	-2686
▁콩	-2687
▁푸	-2688
▁핑	-2689
가락	-2690
갈까	-2691
갔어	-2692
규직	-2693
기간	-2694
나면	-2695
달째	-2696
대폰	-2697
도록	-2698
듯이	-2699
래요	-2700
먹기	-2701
무원	-2702
부로	-2703
샤워	-2704
순위	-2705
시락	-2706
았던	-2707
오면	-2708
우면	-2709
유증	-2710
이니	-2711
인이	-2712
장면	-2713
제를	-2714
지게	-2715
포즈	-2716
하던	-2717
혼자	-2718
▁30	-2719
▁간접	-2720
▁겨울	-2721
▁고맙	-2722
▁공시	-2723
▁과거	-2724
▁과식	-2725
▁교양	-2726
▁글로	-2727
▁기술	-2728
▁남아	-2729
▁낫죠	-2730
▁내요	-2731
▁다되	-2732
▁달콤	-2733
▁됐네	-2734
▁떨리	-2735
▁라고	-2736
▁마실	-2737
▁많을	-2738
▁맘에	-2739
▁맘이	-2740
▁맛난	-2741
▁매력	-2742
▁머릿	-2743
▁메뉴	-2744
▁면도	-2745
▁모아	-2746
▁목표	-2747
▁물리	-2748
▁밀당	-2749
▁반지	-2750
▁벚꽃	-2751
▁변명	-2752
▁보기	-2753
▁보니	-2754
▁보험	-2755
▁부딪	-2756
▁부자	-2757
▁빠르	-2758
▁선이	-2759
▁소비	-2760
▁심심	-2761
▁썸의	-2762
▁아껴	-2763
▁아쉬	-2764
▁애정	-2765
▁어찌	-2766
▁오네	-2767
▁오랫	-2768
▁외롭	-2769
▁용돈	-2770
▁용서	-2771
▁이뤄	-2772
▁이불	-2773
▁인기	-2774
▁있게	-2775
▁절약	-2776
▁죽고	-2777
▁중독	-2778
▁지칠	-2779
▁참고	-2780
▁청첩	-2781
▁카드	-2782
▁파혼	-2783
▁편안	-2784
▁풀릴	-2785
▁한다	-2786
▁행운	-2787
▁향수	-2788
▁헬스	-2789
거같아	-2790
된다고	-2791
었으면	-2792
이라고	-2793
이라니	-2794
장에서	-2795
하기는	-2796
하는지	-2797
하다가	-2798
하자고	-2799
할게요	-2800
▁건강에	-2801
▁공무원	-2802
▁관계가	-2803
▁귀여워	-2804
▁그만큼	-2805
▁극복할	-2806
▁나에게	-2807
▁남자랑	-2808
▁노래방	-2809
▁달라지	-2810
▁도시락	-2811
▁됐는데	-2812
▁드라이	-2813
▁들어가	-2814
▁들어와	-2815
▁모습을	-2816
▁뭐라도	-2817
▁바쁘게	-2818
▁배고파	-2819
▁병원에	-2820
▁보내고	-2821
▁보이고	-2822
▁사귀기	-2823
▁사랑했	-2824
▁살아야	-2825
▁새벽에	-2826
▁선물은	-2827
▁세상에	-2828
▁시간도	-2829
▁시기가	-2830
▁아무렇	-2831
▁아프다	-2832
▁않는데	-2833
▁앞머리	-2834
▁억지로	-2835
▁여자랑	-2836
▁여전히	-2837
▁연애가	-2838
▁우세요	-2839
▁울어도	-2840
▁의사를	-2841
▁인생이	-2842
▁있다는	-2843
▁있어서	-2844
▁있으니	-2845
▁자격이	-2846
▁자신만	-2847
▁전화를	-2848
▁준비를	-2849
▁찾아가	-2850
▁친구의	-2851
▁태어난	-2852
▁표현이	-2853
▁피곤해	-2854
▁혼자만	-2855
▁혼자서	-2856
▁휴대폰	-2857
셔보세요	-2858
시겠어요	-2859
어주세요	-2860
해야할까	-2861
했겠어요	-2862
▁걱정하지	-2863
▁나가세요	-2864
▁내보세요	-2865
▁누군가를	-2866
▁따뜻하게	-2867
▁만나기로	-2868
▁만들어요	-2869
▁맞는걸까	-2870
▁보고싶다	-2871
▁생각하면	-2872
▁솔직하게	-2873
▁스트레칭	-2874
▁싶습니다	-2875
▁않겠지만	-2876
▁없겠네요	-2877
▁여자들은	-2878
▁여자한테	-2879
▁이별에는	-2880
▁잊으세요	-2881
▁잘했어요	-2882
▁점심시간	-2883
▁준비하는	-2884
▁하나봐요	-2885
▁했나봐요	-2886
▁걸어보세요	-2887
▁고백했는데	-2888
▁나눠보세요	-2889
▁남자친구랑	-2890
▁다녀오세요	-2891
▁다르겠지만	-2892
▁돌려보세요	-2893
▁믿어보세요	-2894
▁바쁜가봐요	-2895
▁스스로에게	-2896
▁좋아해주는	-2897
▁지금이라도	-2898
▁친구들이랑	-2899
▁필요하다면	-2900
▁힘든가봅니다	-2901
▁겁	-2902
▁격	-2903
▁급	-2904
▁깜	-2905
▁꼼	-2906
▁끈	-2907
▁넓	-2908
▁녹	-2909
▁닮	-2910
▁땀	-2911
▁띄	-2912
▁잇	-2913
▁찔	-2914
▁쳐	-2915
▁털	-2916
거죠	-2917
까봐	-2918
나고	-2919
나서	-2920
내는	-2921
냈어	-2922
년의	-2923
다발	-2924
데이	-2925
되면	-2926
든지	-2927
따라	-2928
라리	-2929
라이	-2930
렌타	-2931
려구	-2932
려나	-2933
린다	-2934
받아	-2935
번호	-2936
보내	-2937
보니	-2938
분이	-2939
빼로	-2940
생숭	-2941
어두	-2942
정도	-2943
주려	-2944
지마	-2945
치기	-2946
터리	-2947
테리	-2948
하긴	-2949
하대	-2950
함을	-2951
▁가도	-2952
▁감성	-2953
▁개강	-2954
▁거면	-2955
▁경쟁	-2956
▁곁에	-2957
▁그는	-2958
▁그대	-2959
▁기원	-2960
▁깨끗	-2961
▁남기	-2962
▁내리	-2963
▁너를	-2964
▁노후	-2965
▁놀랐	-2966
▁눈치	-2967
▁늦은	-2968
▁답장	-2969
▁대출	-2970
▁데는	-2971
▁떠오	-2972
▁맛집	-2973
▁맞추	-2974
▁매달	-2975
▁명절	-2976
▁모른	-2977
▁몰래	-2978
▁못잊	-2979
▁무거	-2980
▁반가	-2981
▁받은	-2982
▁밝혀	-2983
▁버릴	-2984
▁별거	-2985
▁보다	-2986
▁봄이	-2987
▁빠를	-2988
▁사업	-2989
▁살기	-2990
▁삶을	-2991
▁생겨	-2992
▁샤워	-2993
▁성장	-2994
▁속에	-2995
▁수다	-2996
▁술마	-2997
▁술을	-2998
▁심경	-2999
▁싱숭	-3000
▁썸은	-3001
▁썸을	-3002
▁애들	-3003
▁어머	-3004
▁업무	-3005
▁없지	-3006
▁에휴	-3007
▁여름	-3008
▁염색	-3009
▁왔네	-3010
▁외모	-3011
▁유부	-3012
▁은연	-3013
▁의외	-3014
▁이미	-3015
▁인내	-3016
▁입을	-3017
▁잘되	-3018
▁장소	-3019
▁중인	-3020
▁지는	-3021
▁참는	-3022
▁콩깍	-3023
▁통해	-3024
▁투자	-3025
▁핑계	-3026
▁하다	-3027
▁하던	-3028
▁해보	-3029
▁회식	-3030
▁회원	-3031
▁휴식	-3032
▁흐르	-3033
갑니다	-3034
기세요	-3035
내세요	-3036
르세요	-3037
셨네요	-3038
시군요	-3039
왔는데	-3040
을거라	-3041
이었길	-3042
졌으면	-3043
줬는데	-3044
하기도	-3045
하느라	-3046
하는거	-3047
하지는	-3048
▁가끔은	-3049
▁가는데	-3050
▁감정의	-3051
▁거리를	-3052
▁결혼은	-3053
▁고민임	-3054
▁고백을	-3055
▁과정이	-3056
▁꽃다발	-3057
▁나보다	-3058
▁나을까	-3059
▁나혼자	-3060
▁남자들	-3061
▁내려놓	-3062
▁너에게	-3063
▁노력하	-3064
▁달라진	-3065
▁답답한	-3066
▁답답해	-3067
▁도와줘	-3068
▁도움을	-3069
▁되는지	-3070
▁마시고	-3071
▁말하지	-3072
▁못해요	-3073
▁받으면	-3074
▁발렌타	-3075
▁배우는	-3076
▁보내는	-3077
▁보이지	-3078
▁복잡한	-3079
▁본인의	-3080
▁부분이	-3081
▁빼빼로	-3082
▁사진을	-3083
▁생겼네	-3084
▁솔직한	-3085
▁쉬어도	-3086
▁습관을	-3087
▁않아서	-3088
▁않을까	-3089
▁알아차	-3090
▁없을까	-3091
▁연애에	-3092
▁완벽한	-3093
▁왔으면	-3094
▁외로운	-3095
▁우리는	-3096
▁위로봇	-3097
▁이러지	-3098
▁이별도	-3099
▁이별에	-3100
▁이어나	-3101
▁이유는	-3102
▁이제야	-3103
▁이해가	-3104
▁인생을	-3105
▁일어났	-3106
▁일하는	-3107
▁있지요	-3108
▁자체가	-3109
▁재미가	-3110
▁정리를	-3111
▁정신차	-3112
▁좋으면	-3113
▁주말에	-3114
▁주말이	-3115
▁주변에	-3116
▁차라리	-3117
▁표현을	-3118
▁해주는	-3119
▁행복은	-3120
▁행복을	-3121
▁헤어질	-3122
▁현실을	-3123
▁현재를	-3124
▁회사는	-3125
겨보세요	-3126
▁가능해요	-3127
▁결혼하면	-3128
▁그녀에게	-3129
▁기다리면	-3130
▁기대세요	-3131
▁노력하는	-3132
▁다르겠죠	-3133
▁다음부터	-3134
▁두근거리	-3135
▁로맨틱한	-3136
▁마련이죠	-3137
▁마음대로	-3138
▁바쁘거나	-3139
▁상대에게	-3140
▁슬프네요	-3141
▁싱숭생숭	-3142
▁써보세요	-3143
▁않나봐요	-3144
▁알다가도	-3145
▁어려워요	-3146
▁어울리는	-3147
▁오랫동안	-3148
▁익숙해지	-3149
▁있었으면	-3150
▁있을까요	-3151
▁있을지도	-3152
▁정리하는	-3153
▁좋아했던	-3154
▁지났네요	-3155
▁직장에서	-3156
▁짝사랑은	-3157
▁타이밍이	-3158
▁프로포즈	-3159
▁해야할까	-3160
▁헤아리는	-3161
▁헤어졌네	-3162
▁헤어지면	-3163
▁헤어지지	-3164
▁현실적인	-3165
▁흔들리지	-3166
▁힘듭니다	-3167
으신가봐요	-3168
인가봅니다	-3169
▁감사합니다	-3170
▁고생했어요	-3171
▁골라보세요	-3172
▁되었습니다	-3173
▁드셔보세요	-3174
▁들어보세요	-3175
▁마련이에요	-3176
▁마지막으로	-3177
▁맞았나봐요	-3178
▁스트레스가	-3179
▁시어머니가	-3180
▁아니니까요	-3181
▁있더라고요	-3182
▁조금이라도	-3183
▁다가가보세요	-3184
▁로맨틱하네요	-3185
▁복잡하겠어요	-3186
▁부탁해보세요	-3187
▁여자친구에게	-3188
▁표현해보세요	-3189
▁널	-3190
▁년	-3191
▁늙	-3192
▁땡	-3193
▁봉	-3194
▁섬	-3195
▁씁	-3196
▁얻	-3197
▁옴	-3198
▁왕	-3199
▁왤	-3200
▁웬	-3201
▁젖	-3202
▁짱	-3203
▁폭	-3204
▁효	-3205
각이	-3206
걸로	-3207
겹살	-3208
공평	-3209
난다	-3210
답을	-3211
대한	-3212
도가	-3213
럽게	-3214
려서	-3215
만은	-3216
부여	-3217
분들	-3218
선을	-3219
셔요	-3220
숙사	-3221
스는	-3222
시원	-3223
었길	-3224
육아	-3225
이스	-3226
있어	-3227
정보	-3228
정을	-3229
주면	-3230
지기	-3231
쳤어	-3232
통수	-3233
해진	-3234
활동	-3235
히는	-3236
▁가만	-3237
▁간단	-3238
▁감고	-3239
▁같지	-3240
▁걸리	-3241
▁걸어	-3242
▁구멍	-3243
▁귀가	-3244
▁그립	-3245
▁기간	-3246
▁기준	-3247
▁길러	-3248
▁깨요	-3249
▁나지	-3250
▁남은	-3251
▁너도	-3252
▁느낄	-3253
▁다닐	-3254
▁다리	-3255
▁다정	-3256
▁단계	-3257
▁답이	-3258
▁되돌	-3259
▁들고	-3260
▁딸기	-3261
▁똑똑	-3262
▁로또	-3263
▁많지	-3264
▁매너	-3265
▁멀리	-3266
▁멀어	-3267
▁메모	-3268
▁모자	-3269
▁무색	-3270
▁문신	-3271
▁뭐라	-3272
▁바다	-3273
▁반응	-3274
▁받으	-3275
▁보낼	-3276
▁봉사	-3277
▁봤어	-3278
▁비난	-3279
▁비정	-3280
▁비참	-3281
▁빌려	-3282
▁사면	-3283
▁상상	-3284
▁새해	-3285
▁성별	-3286
▁성향	-3287
▁센스	-3288
▁솔로	-3289
▁수는	-3290
▁수면	-3291
▁순수	-3292
▁술이	-3293
▁시키	-3294
▁신뢰	-3295
▁신중	-3296
▁실내	-3297
▁심리	-3298
▁싸워	-3299
▁아플	-3300
▁악몽	-3301
▁애교	-3302
▁어이	-3303
▁에너	-3304
▁여우	-3305
▁연속	-3306
▁왤케	-3307
▁운전	-3308
▁웃을	-3309
▁웬수	-3310
▁은퇴	-3311
▁의심	-3312
▁의욕	-3313
▁이직	-3314
▁인턴	-3315
▁일만	-3316
▁입어	-3317
▁잇몸	-3318
▁있기	-3319
▁자괴	-3320
▁잘지	-3321
▁잤어	-3322
▁적금	-3323
▁정상	-3324
▁주기	-3325
▁지갑	-3326
▁지도	-3327
▁지진	-3328
▁착한	-3329
▁참견	-3330
▁찾는	-3331
▁천재	-3332
▁체육	-3333
▁쳐다	-3334
▁충격	-3335
▁치료	-3336
▁큰일	-3337
▁통화	-3338
▁특별	-3339
▁하시	-3340
▁학생	-3341
▁한거	-3342
▁한숨	-3343
▁해봤	-3344
▁해외	-3345
▁허무	-3346
▁헛헛	-3347
▁후가	-3348
▁후에	-3349
가는데	-3350
개월이	-3351
개월째	-3352
겼는데	-3353
다는건	-3354
더라구	-3355
드리고	-3356
버렸네	-3357
봅시다	-3358
야할까	-3359
었네요	-3360
에게나	-3361
였는데	-3362
을텐데	-3363
이세요	-3364
점에서	-3365
하나봐	-3366
하라고	-3367
해야할	-3368
해하지	-3369
▁가벼운	-3370
▁가족이	-3371
▁강아지	-3372
▁같아서	-3373
▁걱정이	-3374
▁결혼할	-3375
▁고백할	-3376
▁그러고	-3377
▁그럼요	-3378
▁그리운	-3379
▁기숙사	-3380
▁기억이	-3381
▁기회를	-3382
▁끝났어	-3383
▁나만의	-3384
▁나쁘지	-3385
▁나아졌	-3386
▁나아질	-3387
▁나타날	-3388
▁남에게	-3389
▁누구든	-3390
▁눈치가	-3391
▁느끼는	-3392
▁늘어요	-3393
▁단단히	-3394
▁달콤한	-3395
▁당했어	-3396
▁대해서	-3397
▁돌아가	-3398
▁돌아올	-3399
▁두달이	-3400
▁들었어	-3401
▁따뜻할	-3402
▁마시면	-3403
▁만나도	-3404
▁만드는	-3405
▁만들고	-3406
▁많아서	-3407
▁맛나게	-3408
▁머리랑	-3409
▁머릿속	-3410
▁모든걸	-3411
▁모르게	-3412
▁뭐할까	-3413
▁불편해	-3414
▁사랑과	-3415
▁사랑도	-3416
▁사랑하	-3417
▁사야지	-3418
▁사이에	-3419
▁사정이	-3420
▁삼겹살	-3421
▁생기면	-3422
▁성공할	-3423
▁세상은	-3424
▁소화제	-3425
▁시작해	-3426
▁신나는	-3427
▁실수를	-3428
▁싶다고	-3429
▁썸인가	-3430
▁아까워	-3431
▁아니죠	-3432
▁아이돌	-3433
▁아침이	-3434
▁안되네	-3435
▁어떨까	-3436
▁없어도	-3437
▁여유가	-3438
▁여행도	-3439
▁연애로	-3440
▁영화관	-3441
▁오늘이	-3442
▁우연히	-3443
▁위해서	-3444
▁음식을	-3445
▁이루어	-3446
▁자격증	-3447
▁자신감	-3448
▁잘못된	-3449
▁잘못인	-3450
▁전화가	-3451
▁종교가	-3452
▁찾기를	-3453
▁청첩장	-3454
▁컨디션	-3455
▁하고싶	-3456
▁하는건	-3457
▁하늘을	-3458
▁하루도	-3459
▁하자고	-3460
▁현실의	-3461
▁혼자도	-3462
▁회사와	-3463
▁후회는	-3464
▁흐르고	-3465
렸나봐요	-3466
았습니다	-3467
하고싶어	-3468
하시군요	-3469
해야겠지	-3470
▁결혼해도	-3471
▁고백하는	-3472
▁고백하면	-3473
▁공부해서	-3474
▁관심사를	-3475
▁궁금해요	-3476
▁그렇다면	-3477
▁긍정적인	-3478
▁기다리지	-3479
▁까먹었다	-3480
▁놀러가고	-3481
▁느낌이야	-3482
▁데이트를	-3483
▁드릴게요	-3484
▁마셔야지	-3485
▁말이네요	-3486
▁말해볼까	-3487
▁목소리를	-3488
▁미세먼지	-3489
▁사람들은	-3490
▁생겼으면	-3491
▁세상에서	-3492
▁싫어하는	-3493
▁아니지만	-3494
▁알아보고	-3495
▁어디까지	-3496
▁오늘따라	-3497
▁왔습니다	-3498
▁우선순위	-3499
▁유지하는	-3500
▁의미부여	-3501
▁이번에는	-3502
▁잠수이별	-3503
▁좋아하나	-3504
▁좋았는데	-3505
▁중입니다	-3506
▁줘보세요	-3507
▁짝녀에게	-3508
▁추천해요	-3509
▁해야겠다	-3510
▁해야할지	-3511
▁행복해지	-3512
▁헤어지자	-3513
▁회원정보	-3514
▁관리하세요	-3515
▁괜찮아졌길	-3516
▁기다리는게	-3517
▁다르겠지요	-3518
▁말해주세요	-3519
▁먹어보세요	-3520
▁물어보는게	-3521
▁받아보세요	-3522
▁보내주세요	-3523
▁사랑이네요	-3524
▁생각만해도	-3525
▁생각했는데	-3526
▁소식이네요	-3527
▁아무렇지도	-3528
▁읽어보세요	-3529
▁있나봅니다	-3530
▁좋아하는거	-3531
▁챙겨드세요	-3532
▁취해보세요	-3533
▁사람인가봐요	-3534
▁사랑했나봐요	-3535
▁생각했나봐요	-3536
▁여자친구한테	-3537
▁좋아하나봐요	-3538
▁노력하겠습니다	-3539
▁거기까지인가봐요	-3540
▁검	-3541
▁꽤	-3542
▁끌	-3543
▁끓	-3544
▁낙	-3545
▁니	-3546
▁땅	-3547
▁땐	-3548
▁레	-3549
▁를	-3550
▁며	-3551
▁브	-3552
▁빈	-3553
▁색	-3554
▁쌩	-3555
▁앉	-3556
▁쟁	-3557
▁짠	-3558
▁쪼	-3559
▁칼	-3560
▁탄	-3561
▁탔	-3562
▁활	-3563
▁휘	-3564
▁흥	-3565
간다	-3566
같지	-3567
기력	-3568
길이	-3569
나나	-3570
났어	-3571
너무	-3572
년간	-3573
년을	-3574
담을	-3575
도를	-3576
되길	-3577
되지	-3578
드름	-3579
들지	-3580
라우	-3581
란게	-3582
랑이	-3583
렸을	-3584
료가	-3585
리러	-3586
만한	-3587
모습	-3588
복이	-3589
비가	-3590
셔야	-3591
소음	-3592
수있	-3593
순간	-3594
스피	-3595
시키	-3596
쓰는	-3597
양이	-3598
였을	-3599
우스	-3600
이래	-3601
인다	-3602
일차	-3603
자를	-3604
장에	-3605
적령	-3606
제가	-3607
종일	-3608
주도	-3609
지길	-3610
출발	-3611
침이	-3612
침표	-3613
콜릿	-3614
크닉	-3615
터가	-3616
토닥	-3617
트북	-3618
하철	-3619
호회	-3620
▁15	-3621
▁간사	-3622
▁강렬	-3623
▁거랑	-3624
▁거요	-3625
▁건조	-3626
▁검색	-3627
▁겨우	-3628
▁고칠	-3629
▁공개	-3630
▁그를	-3631
▁그저	-3632
▁기도	-3633
▁길어	-3634
▁깨닫	-3635
▁꿈은	-3636
▁끝도	-3637
▁끝에	-3638
▁끝인	-3639
▁나네	-3640
▁난방	-3641
▁남는	-3642
▁남지	-3643
▁냉정	-3644
▁너는	-3645
▁노는	-3646
▁놀죠	-3647
▁니가	-3648
▁단둘	-3649
▁달려	-3650
▁대리	-3651
▁덜할	-3652
▁덤덤	-3653
▁동성	-3654
▁든든	-3655
▁들이	-3656
▁때로	-3657
▁뛰어	-3658
▁마셨	-3659
▁막혀	-3660
▁말로	-3661
▁맛이	-3662
▁매주	-3663
▁멍청	-3664
▁못했	-3665
▁발목	-3666
▁버티	-3667
▁보게	-3668
▁봐서	-3669
▁부드	-3670
▁비싼	-3671
▁빠져	-3672
▁사겨	-3673
▁사내	-3674
▁살이	-3675
▁살지	-3676
▁상의	-3677
▁생리	-3678
▁서툴	-3679
▁섬유	-3680
▁성숙	-3681
▁세워	-3682
▁셀카	-3683
▁술만	-3684
▁신기	-3685
▁쓰지	-3686
▁아기	-3687
▁아깝	-3688
▁아쉽	-3689
▁알기	-3690
▁애를	-3691
▁약을	-3692
▁약이	-3693
▁어필	-3694
▁언니	-3695
▁오지	-3696
▁올해	-3697
▁와서	-3698
▁위기	-3699
▁유학	-3700
▁유효	-3701
▁의사	-3702
▁일년	-3703
▁입고	-3704
▁입지	-3705
▁있다	-3706
▁잡아	-3707
▁적게	-3708
▁전혀	-3709
▁정류	-3710
▁정의	-3711
▁제게	-3712
▁조건	-3713
▁종일	-3714
▁주식	-3715
▁줄까	-3716
▁줄어	-3717
▁즐겁	-3718
▁지울	-3719
▁지치	-3720
▁참지	-3721
▁책을	-3722
▁철벽	-3723
▁최근	-3724
▁축복	-3725
▁침대	-3726
▁코스	-3727
▁키가	-3728
▁택배	-3729
▁패턴	-3730
▁포근	-3731
▁풀렸	-3732
▁풀어	-3733
▁했나	-3734
▁호의	-3735
▁확신	-3736
▁회복	-3737
▁흔적	-3738
▁흘러	-3739
▁흥미	-3740
라우마	-3741
보아요	-3742
보여요	-3743
야하나	-3744
에서도	-3745
였으면	-3746
유증이	-3747
이예요	-3748
인데이	-3749
인인데	-3750
적이야	-3751
지네요	-3752
하다는	-3753
할거라	-3754
해야죠	-3755
했더니	-3756
했지만	-3757
▁가능한	-3758
▁가능해	-3759
▁가만히	-3760
▁같다고	-3761
▁것처럼	-3762
▁결정은	-3763
▁경험이	-3764
▁계획을	-3765
▁고마워	-3766
▁그녀와	-3767
▁그럴까	-3768
▁그럴만	-3769
▁그렇죠	-3770
▁그분이	-3771
▁기억을	-3772
▁끝나고	-3773
▁끝났네	-3774
▁남들이	-3775
▁내일도	-3776
▁노트북	-3777
▁느껴져	-3778
▁다음에	-3779
▁달달한	-3780
▁답장이	-3781
▁동료가	-3782
▁동호회	-3783
▁됐어요	-3784
▁되는게	-3785
▁될지도	-3786
▁뒤에서	-3787
▁떠나고	-3788
▁마음과	-3789
▁마침표	-3790
▁많으면	-3791
▁말라고	-3792
▁말투가	-3793
▁말하고	-3794
▁말해도	-3795
▁말해줘	-3796
▁맞는지	-3797
▁맞을까	-3798
▁멋져요	-3799
▁모든게	-3800
▁모른척	-3801
▁무기력	-3802
▁미련은	-3803
▁바라는	-3804
▁바라지	-3805
▁배우자	-3806
▁번호를	-3807
▁변하는	-3808
▁보는게	-3809
▁보여요	-3810
▁불공평	-3811
▁사는게	-3812
▁살아요	-3813
▁상담을	-3814
▁상대가	-3815
▁새출발	-3816
▁생각날	-3817
▁선물로	-3818
▁소리가	-3819
▁속상해	-3820
▁속에서	-3821
▁순간이	-3822
▁쉬어가	-3823
▁신경을	-3824
▁신경이	-3825
▁썸에서	-3826
▁아니고	-3827
▁아닐까	-3828
▁아름답	-3829
▁아빠가	-3830
▁아직은	-3831
▁아프지	-3832
▁아픔을	-3833
▁아픔의	-3834
▁앞두고	-3835
▁어렵네	-3836
▁없애는	-3837
▁여드름	-3838
▁여자는	-3839
▁여자와	-3840
▁여행가	-3841
▁연습이	-3842
▁영화보	-3843
▁오래된	-3844
▁우리가	-3845
▁우울해	-3846
▁운명이	-3847
▁이해해	-3848
▁인스타	-3849
▁일들이	-3850
▁일부터	-3851
▁일이죠	-3852
▁있을지	-3853
▁잊혀질	-3854
▁자세히	-3855
▁자체로	-3856
▁정도는	-3857
▁정리될	-3858
▁정말로	-3859
▁제주도	-3860
▁좋으시	-3861
▁중국어	-3862
▁증거를	-3863
▁지내는	-3864
▁지하철	-3865
▁차가워	-3866
▁처음에	-3867
▁초콜릿	-3868
▁출퇴근	-3869
▁친구도	-3870
▁키우고	-3871
▁태어났	-3872
▁피크닉	-3873
▁하네요	-3874
▁하려고	-3875
▁하루를	-3876
▁하지만	-3877
▁해야죠	-3878
▁해주고	-3879
▁했어요	-3880
▁확인해	-3881
▁환승은	-3882
▁힘내지	-3883
갈거예요	-3884
개월만에	-3885
이니까요	-3886
하니까요	-3887
하시네요	-3888
▁결혼적령	-3889
▁고백하고	-3890
▁그러게요	-3891
▁남자한테	-3892
▁노력하면	-3893
▁답답하네	-3894
▁당연하죠	-3895
▁될거예요	-3896
▁듯합니다	-3897
▁모르는게	-3898
▁무시하는	-3899
▁물어봐요	-3900
▁미친듯이	-3901
▁별로라고	-3902
▁봉사활동	-3903
▁비교하지	-3904
▁빠를수록	-3905
▁사람인데	-3906
▁사랑에는	-3907
▁사이에서	-3908
▁사회생활	-3909
▁상처받지	-3910
▁생각할까	-3911
▁생각해도	-3912
▁성공하길	-3913
▁시원하게	-3914
▁신혼여행	-3915
▁아니네요	-3916
▁안되겠지	-3917
▁안되는데	-3918
▁언제까지	-3919
▁엄마한테	-3920
▁여자들이	-3921
▁연락처를	-3922
▁연애하고	-3923
▁이별하고	-3924
▁이제라도	-3925
▁있겠네요	-3926
▁있었나요	-3927
▁잡으세요	-3928
▁전화하는	-3929
▁좋을까요	-3930
▁준비하고	-3931
▁지금보다	-3932
▁취미생활	-3933
▁친구라고	-3934
▁카페에서	-3935
▁트라우마	-3936
▁표현하는	-3937
▁필요했을	-3938
▁하나라도	-3939
▁하루에도	-3940
▁행복해질	-3941
▁헤아리지	-3942
▁헤어짐을	-3943
▁혼자만의	-3944
▁화장하는	-3945
▁후유증이	-3946
▁힘들지요	-3947
▁가능합니다	-3948
▁간접적이든	-3949
▁그랬나봐요	-3950
▁기분전환을	-3951
▁누구에게나	-3952
▁다음부터는	-3953
▁떠나보세요	-3954
▁만남이었길	-3955
▁말씀하세요	-3956
▁맞을거예요	-3957
▁받아들이기	-3958
▁밝혀보세요	-3959
▁버텨보세요	-3960
▁보여주세요	-3961
▁부담스러운	-3962
▁사람이라면	-3963
▁생각해봐요	-3964
▁시작하세요	-3965
▁않았나봐요	-3966
▁억지로라도	-3967
▁이야기해도	-3968
▁정해보세요	-3969
▁좋아했는데	-3970
▁주기적으로	-3971
▁직접적이든	-3972
▁참아보세요	-3973
▁축하합니다	-3974
▁풀어보세요	-3975
▁하지마세요	-3976
▁힘들어하지	-3977
▁기다려주세요	-3978
▁발렌타인데이	-3979
▁사람이니까요	-3980
▁위로봇입니다	-3981
▁필요하겠어요	-3982
▁결정이었을텐데	-3983
▁거기까지였나봐요	-3984
00	-3985
▁곰	-3986
▁곱	-3987
▁광	-3988
▁꾹	-3989
▁낚	-3990
▁낳	-3991
▁낼	-3992
▁닫	-3993
▁득	-3994
▁롱	-3995
▁묻	-3996
▁밖	-3997
▁벽	-3998
▁쉴	-3999
▁슈	-4000
▁씨	-4001
▁액	-4002
▁엉	-4003
▁옳	-4004
▁임	-4005
▁찜	-4006
▁찼	-4007
▁황	-4008
▁흑	-4009
거같	-4010
거지	-4011
건데	-4012
겠음	-4013
겨워	-4014
곰히	-4015
관계	-4016
관리	-4017
교통	-4018
근차	-4019
기업	-4020
끄러	-4021
끼리	-4022
나네	-4023
다른	-4024
대체	-4025
대회	-4026
도는	-4027
돌아	-4028
돼서	-4029
듯한	-4030
라서	-4031
로리	-4032
만나	-4033
매일	-4034
면증	-4035
바이	-4036
바퀴	-4037
벤트	-4038
상담	-4039
선물	-4040
세포	-4041
수가	-4042
수를	-4043
수증	-4044
심을	-4045
였던	-4046
와서	-4047
와요	-4048
이크	-4049
인상	-4050
작정	-4051
잖아	-4052
저리	-4053
절한	-4054
젯밤	-4055
졌네	-4056
조심	-4057
지런	-4058
지죠	-4059
질방	-4060
짐에	-4061
청소	-4062
터디	-4063
트업	-4064
트콘	-4065
표현	-4066
하자	-4067
학기	-4068
한잔	-4069
해를	-4070
했길	-4071
행기	-4072
형이	-4073
화가	-4074
히려	-4075
▁가늠	-4076
▁가득	-4077
▁가려	-4078
▁가을	-4079
▁갈때	-4080
▁감당	-4081
▁감히	-4082
▁갔어	-4083
▁강습	-4084
▁갖지	-4085
▁거둘	-4086
▁것들	-4087
▁고고	-4088
▁고기	-4089
▁고장	-4090
▁고치	-4091
▁공감	-4092
▁관련	-4093
▁귀를	-4094
▁금연	-4095
▁기프	-4096
▁깊게	-4097
▁깜빡	-4098
▁꾸며	-4099
▁끝날	-4100
▁나누	-4101
▁나빠	-4102
▁낭비	-4103
▁넘어	-4104
▁놀다	-4105
▁누굴	-4106
▁눈썹	-4107
▁느낀	-4108
▁늦어	-4109
▁단순	-4110
▁단호	-4111
▁대답	-4112
▁대우	-4113
▁대중	-4114
▁대체	-4115
▁도망	-4116
▁동감	-4117
▁득템	-4118
▁들리	-4119
▁들을	-4120
▁때려	-4121
▁떠났	-4122
▁로봇	-4123
▁막차	-4124
▁많네	-4125
▁많다	-4126
▁말아	-4127
▁말한	-4128
▁망가	-4129
▁맞지	-4130
▁맞춤	-4131
▁매번	-4132
▁먹지	-4133
▁며칠	-4134
▁몇일	-4135
▁모으	-4136
▁무릎	-4137
▁뭐하	-4138
▁바디	-4139
▁밤에	-4140
▁베풀	-4141
▁변해	-4142
▁보름	-4143
▁부부	-4144
▁분노	-4145
▁분들	-4146
▁불타	-4147
▁빠른	-4148
▁빼고	-4149
▁살면	-4150
▁삶의	-4151
▁서류	-4152
▁성덕	-4153
▁성적	-4154
▁성형	-4155
▁소액	-4156
▁소유	-4157
▁소주	-4158
▁속은	-4159
▁수염	-4160
▁수영	-4161
▁수학	-4162
▁쉬어	-4163
▁쉽진	-4164
▁슈퍼	-4165
▁스테	-4166
▁스팸	-4167
▁슬픔	-4168
▁실례	-4169
▁싸움	-4170
▁쌩얼	-4171
▁썸만	-4172
▁썸일	-4173
▁썼어	-4174
▁씻고	-4175
▁아님	-4176
▁아련	-4177
▁아물	-4178
▁아주	-4179
▁안가	-4180
▁안에	-4181
▁알뜰	-4182
▁애석	-4183
▁애틋	-4184
▁어둠	-4185
▁어떠	-4186
▁연휴	-4187
▁예전	-4188
▁오락	-4189
▁오토	-4190
▁온다	-4191
▁올까	-4192
▁옷이	-4193
▁왕따	-4194
▁요구	-4195
▁요금	-4196
▁욕심	-4197
▁우린	-4198
▁운을	-4199
▁웃어	-4200
▁육아	-4201
▁음식	-4202
▁의견	-4203
▁이것	-4204
▁이뻐	-4205
▁이쁜	-4206
▁인공	-4207
▁일단	-4208
▁일에	-4209
▁잃어	-4210
▁입이	-4211
▁자는	-4212
▁자면	-4213
▁자취	-4214
▁잠재	-4215
▁잡는	-4216
▁전세	-4217
▁전역	-4218
▁점은	-4219
▁점이	-4220
▁조용	-4221
▁조차	-4222
▁조카	-4223
▁좋게	-4224
▁좋고	-4225
▁주름	-4226
▁중고	-4227
▁증오	-4228
▁지냈	-4229
▁지키	-4230
▁진지	-4231
▁짧지	-4232
▁찌질	-4233
▁차갑	-4234
▁차례	-4235
▁참아	-4236
▁창업	-4237
▁책임	-4238
▁초기	-4239
▁추석	-4240
▁추운	-4241
▁치고	-4242
▁치맥	-4243
▁치열	-4244
▁치유	-4245
▁키워	-4246
▁타기	-4247
▁타던	-4248
▁탈출	-4249
▁탈퇴	-4250
▁티가	-4251
▁티를	-4252
▁평가	-4253
▁평온	-4254
▁표시	-4255
▁푸는	-4256
▁필름	-4257
▁하든	-4258
▁학점	-4259
▁한강	-4260
▁합격	-4261
▁해낼	-4262
▁했다	-4263
▁허리	-4264
▁형편	-4265
▁혼란	-4266
▁혼술	-4267
▁화내	-4268
▁희생	-4269
▁힘껏	-4270
것같아	-4271
겠는데	-4272
교통을	-4273
근차근	-4274
년만에	-4275
년이란	-4276
되는데	-4277
들에게	-4278
방법을	-4279
봐야지	-4280
생활이	-4281
셨군요	-4282
스러울	-4283
스크림	-4284
스피싱	-4285
시간이	-4286
심으로	-4287
었나봐	-4288
영수증	-4289
우니까	-4290
으려면	-4291
이겠죠	-4292
인건가	-4293
적이고	-4294
적이죠	-4295
졌는데	-4296
지말고	-4297
하더니	-4298
하려는	-4299
할거야	-4300
할까봐	-4301
해주면	-4302
했나봐	-4303
▁가사가	-4304
▁가짐에	-4305
▁각자의	-4306
▁감정은	-4307
▁갔는데	-4308
▁거울을	-4309
▁걱정은	-4310
▁건가요	-4311
▁건강이	-4312
▁걸까요	-4313
▁것들이	-4314
▁견디고	-4315
▁결정할	-4316
▁경우가	-4317
▁경우도	-4318
▁계절이	-4319
▁고맙다	-4320
▁곰곰히	-4321
▁괴로워	-4322
▁괴롭게	-4323
▁군침이	-4324
▁궁금할	-4325
▁권태기	-4326
▁귀엽게	-4327
▁그러는	-4328
▁그분의	-4329
▁기간이	-4330
▁기대가	-4331
▁기분은	-4332
▁길에서	-4333
▁나가기	-4334
▁낫겠지	-4335
▁너무나	-4336
▁넘었네	-4337
▁노래를	-4338
▁놀아줘	-4339
▁누구도	-4340
▁능력을	-4341
▁당연히	-4342
▁대화가	-4343
▁더러워	-4344
▁도네요	-4345
▁도대체	-4346
▁도와주	-4347
▁도전해	-4348
▁되겠지	-4349
▁두근거	-4350
▁두번째	-4351
▁드시고	-4352
▁듣는데	-4353
▁떠보는	-4354
▁뜻대로	-4355
▁마주쳐	-4356
▁마주치	-4357
▁만나길	-4358
▁만나러	-4359
▁만남과	-4360
▁만남이	-4361
▁맛있을	-4362
▁망했어	-4363
▁머리는	-4364
▁멋지게	-4365
▁모아서	-4366
▁못하면	-4367
▁무거워	-4368
▁무엇을	-4369
▁무작정	-4370
▁문제는	-4371
▁문제로	-4372
▁미래에	-4373
▁바쁘면	-4374
▁방법을	-4375
▁배우면	-4376
▁버려야	-4377
▁변하지	-4378
▁별로야	-4379
▁보면서	-4380
▁보아요	-4381
▁보이는	-4382
▁부딪혔	-4383
▁부지런	-4384
▁불면증	-4385
▁비행기	-4386
▁사귀면	-4387
▁사람만	-4388
▁살면서	-4389
▁상처는	-4390
▁새학기	-4391
▁생리통	-4392
▁서로가	-4393
▁선배가	-4394
▁성공을	-4395
▁소식이	-4396
▁소심해	-4397
▁술먹고	-4398
▁쉬어야	-4399
▁스터디	-4400
▁시간에	-4401
▁시간표	-4402
▁실수할	-4403
▁싫다고	-4404
▁심경의	-4405
▁싸우면	-4406
▁아닌거	-4407
▁아프고	-4408
▁아픔이	-4409
▁안경테	-4410
▁안녕히	-4411
▁않지만	-4412
▁알았어	-4413
▁약속을	-4414
▁양해를	-4415
▁얘기를	-4416
▁어디로	-4417
▁어젯밤	-4418
▁언제든	-4419
▁얼굴이	-4420
▁없겠지	-4421
▁없는게	-4422
▁없지만	-4423
▁영원한	-4424
▁오히려	-4425
▁월급이	-4426
▁월요일	-4427
▁의미가	-4428
▁의미를	-4429
▁의외로	-4430
▁의욕이	-4431
▁이벤트	-4432
▁이해할	-4433
▁인상이	-4434
▁일어날	-4435
▁있는거	-4436
▁있어야	-4437
▁자괴감	-4438
▁자기도	-4439
▁자신과	-4440
▁자존감	-4441
▁잘해야	-4442
▁재회를	-4443
▁접어두	-4444
▁정규직	-4445
▁좋아질	-4446
▁준비중	-4447
▁중요할	-4448
▁지겨워	-4449
▁지나간	-4450
▁진심이	-4451
▁집중이	-4452
▁집착해	-4453
▁짜장면	-4454
▁찜질방	-4455
▁차이가	-4456
▁찾아오	-4457
▁첫인상	-4458
▁최근에	-4459
▁최대한	-4460
▁최선을	-4461
▁추억은	-4462
▁치과에	-4463
▁커피향	-4464
▁타다가	-4465
▁태어나	-4466
▁택시비	-4467
▁터놓고	-4468
▁퇴근길	-4469
▁특별한	-4470
▁파먹기	-4471
▁피부가	-4472
▁하거나	-4473
▁하루가	-4474
▁하루에	-4475
▁학원을	-4476
▁행동이	-4477
▁화이트	-4478
▁회사에	-4479
▁휴가가	-4480
▁휴식을	-4481
▁흥미를	-4482
▁힘든데	-4483
▁힘들고	-4484
되겠네요	-4485
버리세요	-4486
야하는데	-4487
었겠네요	-4488
었습니다	-4489
왔습니다	-4490
의하세요	-4491
▁가능할까	-4492
▁고민하게	-4493
▁고쳐쓰는	-4494
▁공부하기	-4495
▁공허함이	-4496
▁괜찮다면	-4497
▁괜찮지만	-4498
▁그럴지도	-4499
▁그만하고	-4500
▁기프트콘	-4501
▁깨끗하게	-4502
▁끝났으면	-4503
▁나을지도	-4504
▁나한테만	-4505
▁남사친이	-4506
▁노력하고	-4507
▁다가가는	-4508
▁다양하게	-4509
▁당신에게	-4510
▁돌아가고	-4511
▁드라이브	-4512
▁만들려고	-4513
▁말해봐요	-4514
▁맛있어요	-4515
▁매일매일	-4516
▁먹었는데	-4517
▁물어보고	-4518
▁받아보는	-4519
▁부드럽게	-4520
▁비밀번호	-4521
▁사귀어도	-4522
▁사랑받고	-4523
▁사랑하기	-4524
▁사보세요	-4525
▁사이인데	-4526
▁상대방도	-4527
▁생각나고	-4528
▁선생님이	-4529
▁세상에는	-4530
▁센스있는	-4531
▁셀프웨딩	-4532
▁소개시켜	-4533
▁스타트업	-4534
▁시작해도	-4535
▁신경쓰는	-4536
▁실수하지	-4537
▁싫어하지	-4538
▁싸우면서	-4539
▁아니라는	-4540
▁않겠어요	-4541
▁애정표현	-4542
▁얼마든지	-4543
▁연락해서	-4544
▁오락가락	-4545
▁오토바이	-4546
▁운동으로	-4547
▁응원해요	-4548
▁의미있는	-4549
▁이기적인	-4550
▁이야기해	-4551
▁익숙해질	-4552
▁인정받고	-4553
▁잊는다는	-4554
▁전남친이	-4555
▁좋습니다	-4556
▁좋아하지	-4557
▁지나갔길	-4558
▁진정으로	-4559
▁집안일을	-4560
▁집착하는	-4561
▁차근차근	-4562
▁차리세요	-4563
▁차분하게	-4564
▁처음부터	-4565
▁처음에는	-4566
▁첫사랑이	-4567
▁체육대회	-4568
▁추억으로	-4569
▁추천해줘	-4570
▁포기하는	-4571
▁하루종일	-4572
▁학교에서	-4573
▁행복하길	-4574
▁행복할까	-4575
▁혼자서도	-4576
▁회사에는	-4577
▁힘들지도	-4578
드려보세요	-4579
했나봅니다	-4580
▁꾸며보세요	-4581
▁달라지는게	-4582
▁대중교통을	-4583
▁되었나봐요	-4584
▁들여보세요	-4585
▁마음이라도	-4586
▁많은가봐요	-4587
▁못했나봐요	-4588
▁벗어나세요	-4589
▁보이스피싱	-4590
▁붙여보세요	-4591
▁빌려보세요	-4592
▁사랑한다는	-4593
▁사랑할수록	-4594
▁상관없어요	-4595
▁선택일거라	-4596
▁스트레칭을	-4597
▁습관이네요	-4598
▁신고하세요	-4599
▁심하겠네요	-4600
▁심한가봐요	-4601
▁아니랍니다	-4602
▁아닌가봐요	-4603
▁아이스크림	-4604
▁안녕하세요	-4605
▁안타깝네요	-4606
▁않을거예요	-4607
▁올려달라고	-4608
▁웃어보세요	-4609
▁재미있어요	-4610
▁정류장에서	-4611
▁좋아한다고	-4612
▁준비하세요	-4613
▁줄여보세요	-4614
▁집중하세요	-4615
▁청해보세요	-4616
▁추천합니다	-4617
▁충전하세요	-4618
▁헤어지는게	-4619
▁헤어지세요	-4620
▁현금영수증	-4621
▁화이트데이	-4622
▁힘들거예요	-4623
▁걱정되겠네요	-4624
▁남자친구한테	-4625
▁시간이겠네요	-4626
▁연습해보세요	-4627
▁예민한가봐요	-4628
▁이별했습니다	-4629
▁이용해주세요	-4630
▁정리해보세요	-4631
▁좋아할거예요	-4632
▁피곤한가봐요	-4633
▁필요한가봐요	-4634
▁힘드신가봐요	-4635
▁두근거리겠어요	-4636
▁부지런하시네요	-4637
▁심호흡해보세요	-4638
▁긁	-4639
▁끼	-4640
▁뉴	-4641
▁덕	-4642
▁떡	-4643
▁똥	-4644
▁랜	-4645
▁밑	-4646
▁밟	-4647
▁북	-4648
▁빚	-4649
▁빵	-4650
▁삐	-4651
▁승	-4652
▁씌	-4653
▁엮	-4654
▁옥	-4655
▁왠	-4656
▁쪽	-4657
▁쫌	-4658
▁층	-4659
▁켜	-4660
▁쿨	-4661
▁탓	-4662
▁팀	-4663
▁퍼	-4664
▁헌	-4665
▁훈	-4666
갔네	-4667
걸요	-4668
게임	-4669
고가	-4670
김에	-4671
나가	-4672
난거	-4673
난히	-4674
냐구	-4675
노래	-4676
능에	-4677
다리	-4678
달콩	-4679
담화	-4680
동산	-4681
되기	-4682
두절	-4683
드가	-4684
드시	-4685
레스	-4686
력은	-4687
련만	-4688
롭게	-4689
르네	-4690
모가	-4691
무게	-4692
문이	-4693
버려	-4694
버리	-4695
버시	-4696
봤어	-4697
분간	-4698
사는	-4699
사에	-4700
살이	-4701
서야	-4702
셨나	-4703
수저	-4704
숭숭	-4705
식에	-4706
심한	-4707
쏟아	-4708
았네	-4709
았다	-4710
연제	-4711
였나	-4712
오를	-4713
와의	-4714
왔네	-4715
우는	-4716
우니	-4717
웠을	-4718
으려	-4719
으며	-4720
은거	-4721
을때	-4722
의금	-4723
있나	-4724
있음	-4725
있지	-4726
저분	-4727
정리	-4728
조절	-4729
조차	-4730
주째	-4731
줘야	-4732
증을	-4733
진다	-4734
질이	-4735
참고	-4736
카락	-4737
터에	-4738
트가	-4739
플라	-4740
하실	-4741
한번	-4742
히네	-4743
힌다	-4744
▁20	-4745
▁가라	-4746
▁가볍	-4747
▁가스	-4748
▁간식	-4749
▁감수	-4750
▁감싸	-4751
▁갚아	-4752
▁개념	-4753
▁거는	-4754
▁걸려	-4755
▁걸린	-4756
▁것만	-4757
▁격려	-4758
▁경제	-4759
▁곳을	-4760
▁괜한	-4761
▁괴로	-4762
▁구분	-4763
▁구속	-4764
▁그가	-4765
▁기댈	-4766
▁길게	-4767
▁길은	-4768
▁김치	-4769
▁꺼내	-4770
▁꼼꼼	-4771
▁꿈같	-4772
▁끄는	-4773
▁끓여	-4774
▁끝낼	-4775
▁끝일	-4776
▁나날	-4777
▁나약	-4778
▁낚시	-4779
▁남길	-4780
▁낭만	-4781
▁내게	-4782
▁내기	-4783
▁내내	-4784
▁높아	-4785
▁눈은	-4786
▁능력	-4787
▁늦는	-4788
▁늦잠	-4789
▁다짐	-4790
▁다툼	-4791
▁단톡	-4792
▁담긴	-4793
▁답은	-4794
▁더욱	-4795
▁돈은	-4796
▁되기	-4797
▁듣기	-4798
▁들까	-4799
▁들려	-4800
▁들면	-4801
▁등산	-4802
▁등을	-4803
▁떨쳐	-4804
▁랜선	-4805
▁리폼	-4806
▁만에	-4807
▁맘을	-4808
▁맞나	-4809
▁먹으	-4810
▁먼지	-4811
▁면허	-4812
▁명품	-4813
▁모를	-4814
▁모쏠	-4815
▁모임	-4816
▁목이	-4817
▁몸에	-4818
▁무관	-4819
▁무의	-4820
▁무한	-4821
▁물건	-4822
▁뭐임	-4823
▁미용	-4824
▁미칠	-4825
▁미화	-4826
▁바늘	-4827
▁바지	-4828
▁반갑	-4829
▁받기	-4830
▁방문	-4831
▁배울	-4832
▁버리	-4833
▁번씩	-4834
▁벌고	-4835
▁벽에	-4836
▁변한	-4837
▁보단	-4838
▁보며	-4839
▁복전	-4840
▁봄은	-4841
▁부디	-4842
▁부여	-4843
▁불금	-4844
▁비하	-4845
▁빠졌	-4846
▁빨래	-4847
▁뽑기	-4848
▁사냐	-4849
▁사탕	-4850
▁살찐	-4851
▁상메	-4852
▁서툰	-4853
▁설렜	-4854
▁설명	-4855
▁세월	-4856
▁손에	-4857
▁손톱	-4858
▁손해	-4859
▁수상	-4860
▁수업	-4861
▁수준	-4862
▁술은	-4863
▁숨막	-4864
▁슬쩍	-4865
▁시골	-4866
▁시도	-4867
▁식단	-4868
▁신발	-4869
▁심어	-4870
▁썸인	-4871
▁쓸쓸	-4872
▁씁쓸	-4873
▁아마	-4874
▁아팠	-4875
▁안주	-4876
▁알지	-4877
▁알콩	-4878
▁애기	-4879
▁양말	-4880
▁어깨	-4881
▁어른	-4882
▁어리	-4883
▁염탐	-4884
▁예감	-4885
▁올랐	-4886
▁옷을	-4887
▁와닿	-4888
▁왜그	-4889
▁요리	-4890
▁웃겨	-4891
▁유행	-4892
▁은행	-4893
▁이모	-4894
▁이틀	-4895
▁일반	-4896
▁읽씹	-4897
▁입에	-4898
▁있음	-4899
▁자도	-4900
▁작아	-4901
▁잔인	-4902
▁잘살	-4903
▁잘자	-4904
▁쟁취	-4905
▁적어	-4906
▁적이	-4907
▁전기	-4908
▁전해	-4909
▁제안	-4910
▁좋으	-4911
▁주차	-4912
▁주택	-4913
▁지낼	-4914
▁지루	-4915
▁지옥	-4916
▁진행	-4917
▁질질	-4918
▁짐을	-4919
▁집앞	-4920
▁짧게	-4921
▁찍고	-4922
▁착잡	-4923
▁참석	-4924
▁참을	-4925
▁처럼	-4926
▁첫눈	-4927
▁추스	-4928
▁층간	-4929
▁치매	-4930
▁치워	-4931
▁컴퓨	-4932
▁코가	-4933
▁타다	-4934
▁털어	-4935
▁특징	-4936
▁틀린	-4937
▁티내	-4938
▁편의	-4939
▁포장	-4940
▁표정	-4941
▁피자	-4942
▁한가	-4943
▁한계	-4944
▁한국	-4945
▁한창	-4946
▁한켠	-4947
▁할줄	-4948
▁해줄	-4949
▁호칭	-4950
▁흑역	-4951
거겠죠	-4952
겠다고	-4953
끄러워	-4954
납니다	-4955
냈어요	-4956
년연애	-4957
느냐에	-4958
데이트	-4959
라는게	-4960
릅니다	-4961
받았어	-4962
보다는	-4963
생인데	-4964
셔야죠	-4965
식하는	-4966
신가요	-4967
았으면	-4968
었나요	-4969
유연제	-4970
이라서	-4971
인걸까	-4972
인데요	-4973
정적인	-4974
지세요	-4975
집니다	-4976
터리가	-4977
테리어	-4978
하겠지	-4979
한건가	-4980
해졌어	-4981
해주지	-4982
했네요	-4983
▁가까운	-4984
▁강렬한	-4985
▁거라고	-4986
▁거절의	-4987
▁걱정할	-4988
▁것들을	-4989
▁게임을	-4990
▁고마운	-4991
▁고백은	-4992
▁고치고	-4993
▁공부할	-4994
▁그러게	-4995
▁그리울	-4996
▁그리움	-4997
▁긁었어	-4998
▁금수저	-4999
▁기다렸	-5000
▁기다림	-5001
▁기대를	-5002
▁기본이	-5003
▁기억의	-5004
▁끝내고	-5005
▁끝인가	-5006
▁나가야	-5007
▁나갔어	-5008
▁남자도	-5009
▁너한테	-5010
▁누구랑	-5011
▁눈에서	-5012
▁다가오	-5013
▁다르죠	-5014
▁단둘이	-5015
▁달려있	-5016
▁당분간	-5017
▁당연한	-5018
▁대화로	-5019
▁되는거	-5020
▁뒤숭숭	-5021
▁뒤통수	-5022
▁뒷담화	-5023
▁드리고	-5024
▁드시면	-5025
▁들어도	-5026
▁들어서	-5027
▁들어올	-5028
▁들어줄	-5029
▁들으면	-5030
▁때문일	-5031
▁때예요	-5032
▁똑같아	-5033
▁마셔도	-5034
▁마실까	-5035
▁마음만	-5036
▁만나요	-5037
▁만나자	-5038
▁만남에	-5039
▁말했어	-5040
▁망했다	-5041
▁맞는거	-5042
▁맞아요	-5043
▁맞춤법	-5044
▁매력이	-5045
▁먹었어	-5046
▁먹자고	-5047
▁먼지가	-5048
▁멀어진	-5049
▁목소리	-5050
▁몸무게	-5051
▁못참고	-5052
▁못해서	-5053
▁못했던	-5054
▁물리적	-5055
▁뭐하는	-5056
▁미끄러	-5057
▁미련도	-5058
▁믿음을	-5059
▁바꿀까	-5060
▁바뀌게	-5061
▁바르고	-5062
▁바빠도	-5063
▁바빠서	-5064
▁밖에서	-5065
▁반응이	-5066
▁받아야	-5067
▁배고프	-5068
▁버텨요	-5069
▁베터리	-5070
▁보냈어	-5071
▁보자고	-5072
▁볼게요	-5073
▁봤는데	-5074
▁부탁드	-5075
▁빌어요	-5076
▁빠지는	-5077
▁뻔했어	-5078
▁사겨도	-5079
▁사귀던	-5080
▁사라질	-5081
▁살아가	-5082
▁상사가	-5083
▁상처도	-5084
▁서운해	-5085
▁서툴러	-5086
▁선에서	-5087
▁선택할	-5088
▁선톡을	-5089
▁세상이	-5090
▁소원을	-5091
▁속도를	-5092
▁슬프게	-5093
▁습관이	-5094
▁시계는	-5095
▁신경써	-5096
▁싫어도	-5097
▁심장이	-5098
▁싶다는	-5099
▁싸우는	-5100
▁아무말	-5101
▁아픔은	-5102
▁안하지	-5103
▁않는게	-5104
▁어디든	-5105
▁어려울	-5106
▁어렵죠	-5107
▁어렸을	-5108
▁어리게	-5109
▁어제와	-5110
▁어쩔수	-5111
▁없는거	-5112
▁여자도	-5113
▁여행은	-5114
▁연락오	-5115
▁연락할	-5116
▁연애의	-5117
▁연인은	-5118
▁옆에서	-5119
▁예민한	-5120
▁오빠가	-5121
▁요즘은	-5122
▁우리집	-5123
▁유난히	-5124
▁유부남	-5125
▁이기적	-5126
▁이름이	-5127
▁인연은	-5128
▁입어도	-5129
▁있었을	-5130
▁잘못을	-5131
▁잘못이	-5132
▁재밌는	-5133
▁재밌다	-5134
▁재밌어	-5135
▁재회는	-5136
▁정도로	-5137
▁존재를	-5138
▁좋을지	-5139
▁좋지요	-5140
▁주면서	-5141
▁주제를	-5142
▁줄어들	-5143
▁지나가	-5144
▁지나면	-5145
▁지내길	-5146
▁지르고	-5147
▁지우고	-5148
▁지저분	-5149
▁짜증날	-5150
▁차갑게	-5151
▁차별해	-5152
▁차이는	-5153
▁찾아온	-5154
▁추억에	-5155
▁축의금	-5156
▁친구네	-5157
▁친구는	-5158
▁친구와	-5159
▁친해지	-5160
▁친해질	-5161
▁카톡을	-5162
▁카톡이	-5163
▁편하고	-5164
▁평소에	-5165
▁프라이	-5166
▁프로필	-5167
▁피해를	-5168
▁하기도	-5169
▁하는지	-5170
▁하다가	-5171
▁하우스	-5172
▁한다는	-5173
▁한숨만	-5174
▁함께한	-5175
▁함께할	-5176
▁함부로	-5177
▁해보고	-5178
▁해야돼	-5179
▁해야할	-5180
▁행운을	-5181
▁현실과	-5182
▁혼자인	-5183
▁화장품	-5184
▁후회를	-5185
▁휴가를	-5186
▁힘든거	-5187
러보세요	-5188
뿐이에요	-5189
셨겠어요	-5190
시겠네요	-5191
지겠네요	-5192
테니까요	-5193
해야겠다	-5194
해야하는	-5195
해지세요	-5196
▁가능하면	-5197
▁가야겠죠	-5198
▁가치관이	-5199
▁거르세요	-5200
▁것입니다	-5201
▁결정이었	-5202
▁관리하는	-5203
▁권태기가	-5204
▁그대로의	-5205
▁기대하지	-5206
▁기억에서	-5207
▁나가볼까	-5208
▁나아졌길	-5209
▁낭비하지	-5210
▁놀이동산	-5211
▁달라진게	-5212
▁대화하는	-5213
▁도전하는	-5214
▁두려움을	-5215
▁두셨네요	-5216
▁들어왔어	-5217
▁떠오르는	-5218
▁마음정리	-5219
▁마주치는	-5220
▁만나는데	-5221
▁만들어서	-5222
▁맞추세요	-5223
▁머리카락	-5224
▁먹으면서	-5225
▁모르겠네	-5226
▁못하는게	-5227
▁물어보면	-5228
▁미워하지	-5229
▁미치겠네	-5230
▁미치겠어	-5231
▁믿으세요	-5232
▁받아들일	-5233
▁보고싶네	-5234
▁보이네요	-5235
▁비난하지	-5236
▁사랑해요	-5237
▁살다보면	-5238
▁상대방에	-5239
▁생각으로	-5240
▁생각해서	-5241
▁생겼네요	-5242
▁생일이네	-5243
▁서류에서	-5244
▁선택이길	-5245
▁성공하고	-5246
▁수학여행	-5247
▁시작이죠	-5248
▁시작하기	-5249
▁신경쓰여	-5250
▁신중하게	-5251
▁심호흡을	-5252
▁쓰레기야	-5253
▁아는데도	-5254
▁아니었을	-5255
▁아닌가요	-5256
▁알콩달콩	-5257
▁어떻게든	-5258
▁어떻게해	-5259
▁언젠가는	-5260
▁없겠지요	-5261
▁여사친이	-5262
▁연락두절	-5263
▁연애하는	-5264
▁연애하면	-5265
▁연인으로	-5266
▁오늘부터	-5267
▁왔나봐요	-5268
▁운명적인	-5269
▁이별이란	-5270
▁이별준비	-5271
▁이상형은	-5272
▁이상형이	-5273
▁이어나가	-5274
▁인생이죠	-5275
▁인정하고	-5276
▁일어나는	-5277
▁일어나서	-5278
▁있었는데	-5279
▁있으니까	-5280
▁있을게요	-5281
▁잊으려고	-5282
▁잊혀지지	-5283
▁자신으로	-5284
▁자유로워	-5285
▁자존감을	-5286
▁잘하는게	-5287
▁잘해주는	-5288
▁재미없어	-5289
▁재미있게	-5290
▁적응해야	-5291
▁정리하고	-5292
▁정확하게	-5293
▁좋았으면	-5294
▁좋으련만	-5295
▁주변에서	-5296
▁주식으로	-5297
▁중요한데	-5298
▁즐기면서	-5299
▁짝남에게	-5300
▁짝사랑을	-5301
▁층간소음	-5302
▁카톡으로	-5303
▁콩깍지가	-5304
▁퇴근하고	-5305
▁편하겠죠	-5306
▁필요한게	-5307
▁한달하고	-5308
▁해외여행	-5309
▁헤어지기	-5310
▁헤어지는	-5311
▁헤어짐이	-5312
▁후폭풍은	-5313
▁후회하기	-5314
▁후회해도	-5315
▁힘들었죠	-5316
담해보세요	-5317
었으니까요	-5318
하신가봐요	-5319
▁가능하겠죠	-5320
▁걱정된다고	-5321
▁걸리겠지만	-5322
▁결혼하는데	-5323
▁과정이에요	-5324
▁구해보세요	-5325
▁기원합니다	-5326
▁남았나봐요	-5327
▁남자애한테	-5328
▁남자친구를	-5329
▁대해보세요	-5330
▁두려워하지	-5331
▁들어주세요	-5332
▁맞춰보세요	-5333
▁맡겨보세요	-5334
▁먹어야겠다	-5335
▁미세먼지가	-5336
▁바꿔보세요	-5337
▁사과하세요	-5338
▁삭제하세요	-5339
▁상대방에게	-5340
▁상황이네요	-5341
▁섬유유연제	-5342
▁순간이네요	-5343
▁순간이었을	-5344
▁아름다워요	-5345
▁애매하네요	-5346
▁없을거예요	-5347
▁여자친구를	-5348
▁연락해볼까	-5349
▁연락했는데	-5350
▁연애하는데	-5351
▁외국인인데	-5352
▁이겨내세요	-5353
▁잃어버렸어	-5354
▁잊혀지기도	-5355
▁잘해주세요	-5356
▁좋아한다는	-5357
▁좋아했으면	-5358
▁좋을텐데요	-5359
▁큰일이네요	-5360
▁프라이버시	-5361
▁하고싶었던	-5362
▁힘든가봐요	-5363
이었나봅니다	-5364
▁남자친구에게	-5365
▁당황했겠어요	-5366
▁마음인가봐요	-5367
▁마주쳐보세요	-5368
▁미치겠습니다	-5369
▁어필해보세요	-5370
▁인정해주세요	-5371
▁있으신가봐요	-5372
▁전화해보세요	-5373
▁좋아해줬으면	-5374
▁필요하다면요	-5375
▁부담스러워하지	-5376
▁객	-5377
▁갠	-5378
▁겪	-5379
▁국	-5380
▁굳	-5381
▁굴	-5382
▁꼰	-5383
▁꽉	-5384
▁둔	-5385
▁뒹	-5386
▁뚫	-5387
▁라	-5388
▁렌	-5389
▁맴	-5390
▁맺	-5391
▁멘	-5392
▁몫	-5393
▁민	-5394
▁밉	-5395
▁뱃	-5396
▁벅	-5397
▁뻑	-5398
▁샌	-5399
▁씹	-5400
▁엇	-5401
▁엠	-5402
▁웹	-5403
▁윗	-5404
▁좌	-5405
▁쫄	-5406
▁찢	-5407
▁컸	-5408
▁콕	-5409
▁킁	-5410
▁탁	-5411
▁팍	-5412
▁품	-5413
▁핫	-5414
▁햇	-5415
▁험	-5416
▁훔	-5417
가가	-5418
가기	-5419
가능	-5420
가의	-5421
감당	-5422
강에	-5423
같애	-5424
걸음	-5425
게되	-5426
겠대	-5427
고있	-5428
공원	-5429
구경	-5430
구를	-5431
그만	-5432
극히	-5433
기에	-5434
기지	-5435
긴다	-5436
길만	-5437
꺼야	-5438
꼬박	-5439
났네	-5440
네여	-5441
달이	-5442
대는	-5443
독한	-5444
드네	-5445
드위	-5446
듬어	-5447
라네	-5448
라니	-5449
랬다	-5450
런지	-5451
렀어	-5452
력서	-5453
력에	-5454
로그	-5455
르기	-5456
르지	-5457
름이	-5458
리죠	-5459
리필	-5460
린라	-5461
림을	-5462
마요	-5463
마자	-5464
만해	-5465
맛도	-5466
맛이	-5467
맥이	-5468
명한	-5469
문을	-5470
물을	-5471
밖은	-5472
받는	-5473
받을	-5474
발을	-5475
버린	-5476
보네	-5477
부의	-5478
뻑해	-5479
생각	-5480
서와	-5481
설여	-5482
센터	-5483
소리	-5484
속에	-5485
수업	-5486
스트	-5487
시피	-5488
신발	-5489
쎄요	-5490
아리	-5491
아빠	-5492
야해	-5493
양말	-5494
양제	-5495
없네	-5496
에만	-5497
역이	-5498
였네	-5499
영상	-5500
오래	-5501
온다	-5502
올라	-5503
올려	-5504
왔다	-5505
우고	-5506
우지	-5507
운데	-5508
울렛	-5509
은것	-5510
이너	-5511
인줄	-5512
정녀	-5513
져서	-5514
조건	-5515
주일	-5516
지못	-5517
지부	-5518
지우	-5519
질뻔	-5520
질제	-5521
쪄도	-5522
찰텐	-5523
처리	-5524
총회	-5525
촬영	-5526
카드	-5527
콜록	-5528
터넷	-5529
테니	-5530
트남	-5531
트롤	-5532
티콘	-5533
프터	-5534
하며	-5535
하진	-5536
학금	-5537
한건	-5538
함에	-5539
해가	-5540
했나	-5541
향을	-5542
▁12	-5543
▁가게	-5544
▁간대	-5545
▁간직	-5546
▁감동	-5547
▁감출	-5548
▁강요	-5549
▁강제	-5550
▁갖게	-5551
▁같다	-5552
▁같음	-5553
▁개시	-5554
▁객관	-5555
▁갠톡	-5556
▁걔는	-5557
▁걷고	-5558
▁걷길	-5559
▁골프	-5560
▁공유	-5561
▁과연	-5562
▁구두	-5563
▁구별	-5564
▁구워	-5565
▁군인	-5566
▁귀로	-5567
▁그걸	-5568
▁그때	-5569
▁그땐	-5570
▁근데	-5571
▁글자	-5572
▁길면	-5573
▁길지	-5574
▁깎아	-5575
▁꼬박	-5576
▁꼰대	-5577
▁꾹꾹	-5578
▁끈을	-5579
▁끝냈	-5580
▁나나	-5581
▁나니	-5582
▁나야	-5583
▁남과	-5584
▁남들	-5585
▁낮잠	-5586
▁낳을	-5587
▁내면	-5588
▁내서	-5589
▁냉면	-5590
▁너가	-5591
▁너의	-5592
▁넣을	-5593
▁노려	-5594
▁놀까	-5595
▁농구	-5596
▁농담	-5597
▁놔둬	-5598
▁누락	-5599
▁눈높	-5600
▁늙어	-5601
▁다칠	-5602
▁단체	-5603
▁닮은	-5604
▁당첨	-5605
▁당한	-5606
▁대수	-5607
▁대충	-5608
▁대피	-5609
▁데가	-5610
▁독이	-5611
▁돌려	-5612
▁돌면	-5613
▁되짚	-5614
▁두푼	-5615
▁뒤에	-5616
▁뒹굴	-5617
▁드릴	-5618
▁땀을	-5619
▁때매	-5620
▁때요	-5621
▁때죠	-5622
▁떠날	-5623
▁또한	-5624
▁똥차	-5625
▁뜨겁	-5626
▁띄는	-5627
▁롱디	-5628
▁리드	-5629
▁마른	-5630
▁마중	-5631
▁막막	-5632
▁만화	-5633
▁말걸	-5634
▁망함	-5635
▁맞아	-5636
▁먹먹	-5637
▁먹은	-5638
▁멈춰	-5639
▁멋져	-5640
▁목적	-5641
▁몰려	-5642
▁못자	-5643
▁무모	-5644
▁무언	-5645
▁문화	-5646
▁물이	-5647
▁뭐로	-5648
▁뭐지	-5649
▁뭐해	-5650
▁뭘로	-5651
▁미루	-5652
▁미팅	-5653
▁믿고	-5654
▁믿어	-5655
▁믿지	-5656
▁밀려	-5657
▁바꿨	-5658
▁바쁠	-5659
▁반에	-5660
▁반장	-5661
▁반한	-5662
▁발견	-5663
▁밥을	-5664
▁방금	-5665
▁배달	-5666
▁배신	-5667
▁백업	-5668
▁버는	-5669
▁버릇	-5670
▁베프	-5671
▁변신	-5672
▁병신	-5673
▁보란	-5674
▁보신	-5675
▁봐주	-5676
▁봤네	-5677
▁부질	-5678
▁불만	-5679
▁불효	-5680
▁브랜	-5681
▁블록	-5682
▁비워	-5683
▁빌어	-5684
▁뿌린	-5685
▁사도	-5686
▁사먹	-5687
▁사수	-5688
▁사전	-5689
▁사줘	-5690
▁사춘	-5691
▁사표	-5692
▁상종	-5693
▁생생	-5694
▁서점	-5695
▁선풍	-5696
▁설득	-5697
▁세어	-5698
▁소름	-5699
▁속박	-5700
▁손편	-5701
▁수건	-5702
▁수능	-5703
▁승진	-5704
▁시려	-5705
▁시선	-5706
▁실천	-5707
▁실패	-5708
▁실행	-5709
▁싸운	-5710
▁싸웠	-5711
▁쌓여	-5712
▁썸도	-5713
▁쓰일	-5714
▁아부	-5715
▁안고	-5716
▁안될	-5717
▁안맞	-5718
▁안부	-5719
▁안할	-5720
▁알까	-5721
▁애의	-5722
▁애인	-5723
▁액정	-5724
▁어흥	-5725
▁없고	-5726
▁엇갈	-5727
▁엠티	-5728
▁여쭤	-5729
▁역할	-5730
▁열어	-5731
▁열흘	-5732
▁영어	-5733
▁예능	-5734
▁예비	-5735
▁예상	-5736
▁예약	-5737
▁오길	-5738
▁오려	-5739
▁오바	-5740
▁오셨	-5741
▁옳은	-5742
▁와인	-5743
▁와플	-5744
▁왠지	-5745
▁외출	-5746
▁욕해	-5747
▁운이	-5748
▁울고	-5749
▁웃는	-5750
▁웃음	-5751
▁원동	-5752
▁원인	-5753
▁원치	-5754
▁월세	-5755
▁웨딩	-5756
▁웹툰	-5757
▁으아	-5758
▁음료	-5759
▁이끌	-5760
▁이왕	-5761
▁인상	-5762
▁인지	-5763
▁일기	-5764
▁일방	-5765
▁일부	-5766
▁일시	-5767
▁읽어	-5768
▁임용	-5769
▁입학	-5770
▁있대	-5771
▁잊기	-5772
▁자장	-5773
▁작동	-5774
▁잘라	-5775
▁잠들	-5776
▁잡념	-5777
▁장갑	-5778
▁적당	-5779
▁전과	-5780
▁전학	-5781
▁절친	-5782
▁정장	-5783
▁정정	-5784
▁제정	-5785
▁조가	-5786
▁졸린	-5787
▁좋긴	-5788
▁좋음	-5789
▁좌절	-5790
▁죄가	-5791
▁주량	-5792
▁주워	-5793
▁즐겨	-5794
▁증거	-5795
▁증명	-5796
▁지각	-5797
▁지낸	-5798
▁지속	-5799
▁지압	-5800
▁지적	-5801
▁지친	-5802
▁직업	-5803
▁직전	-5804
▁질려	-5805
▁질린	-5806
▁질문	-5807
▁짧죠	-5808
▁찍는	-5809
▁찍어	-5810
▁찢어	-5811
▁차인	-5812
▁참다	-5813
▁처리	-5814
▁청결	-5815
▁청춘	-5816
▁최신	-5817
▁최저	-5818
▁축제	-5819
▁춥네	-5820
▁친절	-5821
▁친척	-5822
▁침묵	-5823
▁커서	-5824
▁케익	-5825
▁킁킁	-5826
▁키울	-5827
▁타나	-5828
▁타러	-5829
▁타인	-5830
▁탈모	-5831
▁태연	-5832
▁터지	-5833
▁터질	-5834
▁토닥	-5835
▁톡이	-5836
▁파도	-5837
▁팍팍	-5838
▁패션	-5839
▁포맷	-5840
▁폭식	-5841
▁피로	-5842
▁필기	-5843
▁필수	-5844
▁하러	-5845
▁하아	-5846
▁학벌	-5847
▁한약	-5848
▁한푼	-5849
▁할지	-5850
▁합리	-5851
▁해로	-5852
▁해준	-5853
▁했을	-5854
▁허락	-5855
▁현타	-5856
▁혼수	-5857
▁확률	-5858
▁환기	-5859
▁황당	-5860
▁회의	-5861
▁훔쳐	-5862
▁휴학	-5863
▁흐른	-5864
개월차	-5865
건강에	-5866
겠네여	-5867
기간을	-5868
다는걸	-5869
다는데	-5870
되어야	-5871
드리는	-5872
드위치	-5873
들이랑	-5874
뜨리기	-5875
렵니다	-5876
마다의	-5877
바퀴만	-5878
보려고	-5879
봤는데	-5880
셨나요	-5881
시키는	-5882
야해요	-5883
어가길	-5884
여행이	-5885
였나요	-5886
왔으면	-5887
이니까	-5888
이었어	-5889
졌어요	-5890
줬더니	-5891
지능에	-5892
칼로리	-5893
하기가	-5894
하기로	-5895
하는건	-5896
하려면	-5897
할까요	-5898
해봐도	-5899
해졌죠	-5900
해줘서	-5901
해지길	-5902
해지네	-5903
했다고	-5904
했다면	-5905
했던거	-5906
했을까	-5907
▁가기로	-5908
▁가끔씩	-5909
▁가네요	-5910
▁가는게	-5911
▁가려고	-5912
▁가볍게	-5913
▁가봐요	-5914
▁가야돼	-5915
▁가족들	-5916
▁각질제	-5917
▁간만에	-5918
▁간절히	-5919
▁갈수록	-5920
▁감각이	-5921
▁감정기	-5922
▁갑니다	-5923
▁거겠지	-5924
▁거라면	-5925
▁건강을	-5926
▁건들지	-5927
▁걸음을	-5928
▁것이죠	-5929
▁겠지만	-5930
▁결과가	-5931
▁결국엔	-5932
▁결혼을	-5933
▁계기가	-5934
▁고시원	-5935
▁고양이	-5936
▁곳까지	-5937
▁곳이죠	-5938
▁관계의	-5939
▁괜찮길	-5940
▁괜찮다	-5941
▁구멍이	-5942
▁귀여울	-5943
▁그것도	-5944
▁그녀도	-5945
▁그런가	-5946
▁그런지	-5947
▁그린라	-5948
▁그만둬	-5949
▁근처로	-5950
▁글쎄요	-5951
▁기르고	-5952
▁기술이	-5953
▁기억에	-5954
▁기억은	-5955
▁기억해	-5956
▁기울여	-5957
▁기준이	-5958
▁깨달음	-5959
▁꼼수를	-5960
▁꽃길만	-5961
▁끊겼어	-5962
▁나가면	-5963
▁나는데	-5964
▁나오네	-5965
▁나올거	-5966
▁나왔네	-5967
▁나이에	-5968
▁나이테	-5969
▁남겨서	-5970
▁남아있	-5971
▁남이니	-5972
▁남자의	-5973
▁낭만이	-5974
▁내일을	-5975
▁내일이	-5976
▁노래는	-5977
▁누구야	-5978
▁다녀도	-5979
▁다르게	-5980
▁다르지	-5981
▁다리가	-5982
▁단맛도	-5983
▁달라요	-5984
▁답답할	-5985
▁답정녀	-5986
▁대기업	-5987
▁대청소	-5988
▁대화의	-5989
▁더워서	-5990
▁도전은	-5991
▁돌리는	-5992
▁돌아서	-5993
▁동영상	-5994
▁되려고	-5995
▁되려면	-5996
▁되어요	-5997
▁되었길	-5998
▁되었네	-5999
▁되었을	-6000
▁된다고	-6001
▁두세요	-6002
▁뒷감당	-6003
▁드려요	-6004
▁들이대	-6005
▁따듯한	-6006
▁따라가	-6007
▁때로는	-6008
▁때부터	-6009
▁떠나간	-6010
▁떨린다	-6011
▁떨어뜨	-6012
▁똑같애	-6013
▁뛰어넘	-6014
▁레시피	-6015
▁마시지	-6016
▁막히는	-6017
▁막힌다	-6018
▁만남은	-6019
▁만났던	-6020
▁만났든	-6021
▁만들기	-6022
▁만지지	-6023
▁많으시	-6024
▁많은가	-6025
▁많은걸	-6026
▁말아야	-6027
▁말해서	-6028
▁말해주	-6029
▁맘처럼	-6030
▁맛있다	-6031
▁맛있어	-6032
▁망설여	-6033
▁맞으면	-6034
▁매력을	-6035
▁먹거나	-6036
▁먹는데	-6037
▁먹어도	-6038
▁먹어야	-6039
▁멈추지	-6040
▁메뉴얼	-6041
▁면도기	-6042
▁면역이	-6043
▁명상을	-6044
▁모습도	-6045
▁모자라	-6046
▁몸에는	-6047
▁무시해	-6048
▁무의식	-6049
▁무조건	-6050
▁문제죠	-6051
▁뭐하나	-6052
▁뭐하면	-6053
▁미래를	-6054
▁미련을	-6055
▁미용실	-6056
▁발전이	-6057
▁방법도	-6058
▁배울까	-6059
▁버리는	-6060
▁버스가	-6061
▁버티고	-6062
▁벅찰텐	-6063
▁베트남	-6064
▁베풀고	-6065
▁변해요	-6066
▁변화도	-6067
▁보기로	-6068
▁보내지	-6069
▁보냈네	-6070
▁보답을	-6071
▁보름달	-6072
▁보일러	-6073
▁부분을	-6074
▁부족해	-6075
▁불안해	-6076
▁불편한	-6077
▁붙잡는	-6078
▁붙잡아	-6079
▁비밀은	-6080
▁비밀을	-6081
▁비세요	-6082
▁비싸요	-6083
▁빠르면	-6084
▁빠지면	-6085
▁뻑뻑해	-6086
▁사과할	-6087
▁사귀어	-6088
▁사람인	-6089
▁사랑니	-6090
▁사이로	-6091
▁산책을	-6092
▁살쪄도	-6093
▁새신발	-6094
▁생각도	-6095
▁생겨서	-6096
▁선택이	-6097
▁설레는	-6098
▁설렘이	-6099
▁성공한	-6100
▁성별을	-6101
▁성적이	-6102
▁센터에	-6103
▁소리를	-6104
▁소문이	-6105
▁소소한	-6106
▁소액결	-6107
▁소화가	-6108
▁속시원	-6109
▁속이는	-6110
▁손가락	-6111
▁술마시	-6112
▁술한잔	-6113
▁쉽지가	-6114
▁스키장	-6115
▁시선을	-6116
▁시작할	-6117
▁식습관	-6118
▁싫어요	-6119
▁심심해	-6120
▁싶으면	-6121
▁싸우고	-6122
▁싸웠어	-6123
▁썸녀가	-6124
▁썸타고	-6125
▁쓰려고	-6126
▁쓰면서	-6127
▁쓰이는	-6128
▁아껴뒀	-6129
▁아는거	-6130
▁아니길	-6131
▁아니네	-6132
▁아니지	-6133
▁아쉬운	-6134
▁아울렛	-6135
▁아이디	-6136
▁아프게	-6137
▁아픔도	-6138
▁안받아	-6139
▁안부를	-6140
▁안좋아	-6141
▁안좋은	-6142
▁안타까	-6143
▁않았길	-6144
▁않지요	-6145
▁알겠어	-6146
▁알뜰폰	-6147
▁알바생	-6148
▁알아볼	-6149
▁앞에선	-6150
▁애매한	-6151
▁애틋한	-6152
▁애프터	-6153
▁야경이	-6154
▁어느새	-6155
▁어떡함	-6156
▁어렵다	-6157
▁어리석	-6158
▁어쩌면	-6159
▁어플로	-6160
▁어플을	-6161
▁언니랑	-6162
▁얼굴에	-6163
▁엄마랑	-6164
▁없는지	-6165
▁없지요	-6166
▁여러명	-6167
▁여자로	-6168
▁연락도	-6169
▁연애중	-6170
▁연인과	-6171
▁염색을	-6172
▁영양제	-6173
▁예감은	-6174
▁예민해	-6175
▁예뻐질	-6176
▁예의일	-6177
▁오니까	-6178
▁오디션	-6179
▁오라고	-6180
▁오해가	-6181
▁옷이요	-6182
▁외롭고	-6183
▁욕하고	-6184
▁용기내	-6185
▁우산에	-6186
▁우연이	-6187
▁우정이	-6188
▁운동할	-6189
▁월급날	-6190
▁월급은	-6191
▁위로를	-6192
▁위험한	-6193
▁위험해	-6194
▁유부녀	-6195
▁의심해	-6196
▁이기니	-6197
▁이러는	-6198
▁이력서	-6199
▁이별중	-6200
▁이별할	-6201
▁이사를	-6202
▁이어질	-6203
▁이어폰	-6204
▁이유로	-6205
▁이해를	-6206
▁이해못	-6207
▁인내할	-6208
▁인맥이	-6209
▁인생의	-6210
▁인터넷	-6211
▁일요일	-6212
▁일인지	-6213
▁입냄새	-6214
▁잇몸약	-6215
▁있거나	-6216
▁있겠다	-6217
▁있군요	-6218
▁있냐고	-6219
▁있었어	-6220
▁잊지못	-6221
▁잊혀져	-6222
▁자다가	-6223
▁자신은	-6224
▁자야지	-6225
▁자장면	-6226
▁잘생겼	-6227
▁잘지내	-6228
▁잘하면	-6229
▁잡아도	-6230
▁장학금	-6231
▁재밌을	-6232
▁저녁에	-6233
▁전여자	-6234
▁전하지	-6235
▁접는게	-6236
▁접어야	-6237
▁정리해	-6238
▁정신이	-6239
▁정해져	-6240
▁조심히	-6241
▁조절을	-6242
▁존중해	-6243
▁종교의	-6244
▁좋네요	-6245
▁좋대요	-6246
▁좋아서	-6247
▁좋았던	-6248
▁좋은거	-6249
▁좋을거	-6250
▁주저리	-6251
▁준다면	-6252
▁준비할	-6253
▁즐거울	-6254
▁즐겁게	-6255
▁즐기는	-6256
▁지극히	-6257
▁지금의	-6258
▁지루해	-6259
▁지웠어	-6260
▁지진시	-6261
▁지쳐서	-6262
▁지칠만	-6263
▁진실된	-6264
▁짝녀를	-6265
▁짠하고	-6266
▁찌질한	-6267
▁참았어	-6268
▁채워질	-6269
▁초기화	-6270
▁최고의	-6271
▁최악의	-6272
▁추천해	-6273
▁커플링	-6274
▁커피가	-6275
▁커피는	-6276
▁케이스	-6277
▁콩깍지	-6278
▁키우는	-6279
▁틀리는	-6280
▁파도가	-6281
▁편의점	-6282
▁포기가	-6283
▁풀어야	-6284
▁피하는	-6285
▁피해만	-6286
▁하나죠	-6287
▁하다니	-6288
▁하루는	-6289
▁하지도	-6290
▁한국도	-6291
▁한번더	-6292
▁한번쯤	-6293
▁한심해	-6294
▁할까요	-6295
▁함께도	-6296
▁해결될	-6297
▁해줄까	-6298
▁행동은	-6299
▁허리가	-6300
▁헤아릴	-6301
▁헷갈리	-6302
▁호랑이	-6303
▁호의를	-6304
▁혼자를	-6305
▁화장이	-6306
▁후회만	-6307
▁후회해	-6308
▁휴식도	-6309
▁흐르는	-6310
▁흘러가	-6311
▁희망은	-6312
▁희망이	-6313
▁힘들까	-6314
기만해도	-6315
드시거나	-6316
리겠어요	-6317
받으세요	-6318
보이네요	-6319
사람친구	-6320
성이에요	-6321
시나봐요	-6322
시는구나	-6323
실거예요	-6324
어두세요	-6325
있습니다	-6326
적이네요	-6327
지마세요	-6328
체적으로	-6329
하나봐요	-6330
하셨어요	-6331
해야할지	-6332
해졌어요	-6333
▁가능하죠	-6334
▁가능한가	-6335
▁가리세요	-6336
▁가족한테	-6337
▁간사하죠	-6338
▁감사하는	-6339
▁감으세요	-6340
▁갑작스럽	-6341
▁거짓말은	-6342
▁거짓말을	-6343
▁걱정이야	-6344
▁건강습관	-6345
▁건강하게	-6346
▁견뎌내고	-6347
▁결혼준비	-6348
▁결혼하고	-6349
▁결혼하기	-6350
▁결혼해야	-6351
▁고마움을	-6352
▁고민이죠	-6353
▁공부하면	-6354
▁과식하지	-6355
▁관심사에	-6356
▁괜찮겠지	-6357
▁괜찮을거	-6358
▁교양수업	-6359
▁그렇겠죠	-6360
▁금수저로	-6361
▁기다려도	-6362
▁기다리던	-6363
▁기본으로	-6364
▁기본이죠	-6365
▁깔끔해질	-6366
▁깨닫다니	-6367
▁꼬박꼬박	-6368
▁나겠네요	-6369
▁날이네요	-6370
▁남았네요	-6371
▁남이에요	-6372
▁남자분들	-6373
▁남자에게	-6374
▁남친이랑	-6375
▁낭만적인	-6376
▁너무나도	-6377
▁너무너무	-6378
▁넘어가네	-6379
▁넘었는데	-6380
▁놀이공원	-6381
▁높겠네요	-6382
▁놓으세요	-6383
▁눈높이가	-6384
▁늦었어요	-6385
▁다녀왔어	-6386
▁다릅니다	-6387
▁다하세요	-6388
▁단체생활	-6389
▁단호하게	-6390
▁달라져요	-6391
▁달라지지	-6392
▁당분간은	-6393
▁당신만이	-6394
▁데이트가	-6395
▁동생한테	-6396
▁드립니다	-6397
▁들리려고	-6398
▁들어가서	-6399
▁떨어지는	-6400
▁마셨는데	-6401
▁마음에서	-6402
▁마음이랑	-6403
▁만난다면	-6404
▁만화같은	-6405
▁맡기세요	-6406
▁먹었더니	-6407
▁멀어지면	-6408
▁멈추세요	-6409
▁메모하는	-6410
▁모두에게	-6411
▁모아야할	-6412
▁목표네요	-6413
▁무너져요	-6414
▁무섭나요	-6415
▁무한리필	-6416
▁문제네요	-6417
▁물어봐도	-6418
▁미안하다	-6419
▁바쁜일이	-6420
▁반가워요	-6421
▁받으세요	-6422
▁벗어나는	-6423
▁변화시켜	-6424
▁보내시길	-6425
▁보다보면	-6426
▁보일러가	-6427
▁보험처리	-6428
▁부모님을	-6429
▁분위기를	-6430
▁불공평해	-6431
▁비교하면	-6432
▁비밀연애	-6433
▁비정규직	-6434
▁비행기표	-6435
▁뿌린대로	-6436
▁사람이다	-6437
▁사람이야	-6438
▁사람하고	-6439
▁사랑이죠	-6440
▁사랑인지	-6441
▁사랑할까	-6442
▁사생활이	-6443
▁살아있음	-6444
▁상대방의	-6445
▁샌드위치	-6446
▁생각들을	-6447
▁생각하게	-6448
▁생겼어요	-6449
▁생긴다는	-6450
▁선물하면	-6451
▁선생님께	-6452
▁소유하는	-6453
▁쇼핑하고	-6454
▁수면양말	-6455
▁쉬어가도	-6456
▁스타일이	-6457
▁스테이크	-6458
▁슬퍼하고	-6459
▁습관처럼	-6460
▁시간내서	-6461
▁시기네요	-6462
▁신경쓰고	-6463
▁신경쓰면	-6464
▁신경쓰이	-6465
▁신고하고	-6466
▁심어볼까	-6467
▁심해지는	-6468
▁싶어하는	-6469
▁썸녀한테	-6470
▁쓸데없는	-6471
▁아름답죠	-6472
▁아쉬움이	-6473
▁아침부터	-6474
▁아팠으면	-6475
▁안타깝게	-6476
▁안해먹고	-6477
▁않겠네요	-6478
▁알아보는	-6479
▁어느정도	-6480
▁어둠에서	-6481
▁어떠세요	-6482
▁어떡하죠	-6483
▁어머어머	-6484
▁어찌해야	-6485
▁엄마아빠	-6486
▁없는걸까	-6487
▁없답니다	-6488
▁없어졌어	-6489
▁에너지가	-6490
▁에너지를	-6491
▁여자에게	-6492
▁여친에게	-6493
▁연락왔어	-6494
▁연락할까	-6495
▁연애세포	-6496
▁염탐하지	-6497
▁오래오래	-6498
▁올거예요	-6499
▁왜이렇게	-6500
▁외로움을	-6501
▁용서하고	-6502
▁웃으면서	-6503
▁원동력이	-6504
▁원인이죠	-6505
▁원한다면	-6506
▁유효기간	-6507
▁의식하는	-6508
▁이름이랑	-6509
▁이모티콘	-6510
▁이별하는	-6511
▁이불밖은	-6512
▁이상적인	-6513
▁이어보고	-6514
▁이어주는	-6515
▁이왕이면	-6516
▁이제서야	-6517
▁이해하고	-6518
▁이해하기	-6519
▁익숙해져	-6520
▁인생에서	-6521
▁인지시켜	-6522
▁인테리어	-6523
▁일어나면	-6524
▁일하면서	-6525
▁입으세요	-6526
▁있는걸까	-6527
▁있답니다	-6528
▁있으세요	-6529
▁잊어가는	-6530
▁잊혀질까	-6531
▁잘지내고	-6532
▁잠재력을	-6533
▁재미있어	-6534
▁재밌는거	-6535
▁저마다의	-6536
▁정신없이	-6537
▁존중하고	-6538
▁졸업식에	-6539
▁좋아지고	-6540
▁좋아지는	-6541
▁지금부터	-6542
▁지하철에	-6543
▁집에서도	-6544
▁짜증나네	-6545
▁차였는데	-6546
▁찾아가는	-6547
▁찾아봐요	-6548
▁찾아오는	-6549
▁챙겨주면	-6550
▁챙기세요	-6551
▁취미네요	-6552
▁취직하면	-6553
▁친구들을	-6554
▁친구라면	-6555
▁친구인데	-6556
▁친해지는	-6557
▁컴퓨터가	-6558
▁클럽에서	-6559
▁판단되면	-6560
▁표현하지	-6561
▁피부관리	-6562
▁필요하지	-6563
▁하느냐에	-6564
▁하니까요	-6565
▁하다보니	-6566
▁하셨군요	-6567
▁하지말고	-6568
▁한가지만	-6569
▁한답니다	-6570
▁한바퀴만	-6571
▁함께하고	-6572
▁합리적인	-6573
▁해결되길	-6574
▁해보려고	-6575
▁해봤는데	-6576
▁해야겠지	-6577
▁핸드폰이	-6578
▁헤어짐은	-6579
▁헬스장에	-6580
▁헷갈리네	-6581
▁형편대로	-6582
▁혼자해도	-6583
▁확인하는	-6584
▁후련하네	-6585
▁후련하니	-6586
▁후회하는	-6587
▁후회할까	-6588
▁힘들겠죠	-6589
▁힘들지만	-6590
원해보세요	-6591
조심하세요	-6592
하셨겠어요	-6593
한가봅니다	-6594
▁가능하다고	-6595
▁가족들이랑	-6596
▁간직하세요	-6597
▁갑작스러운	-6598
▁결혼적령기	-6599
▁고민하느라	-6600
▁고백하는게	-6601
▁고백하세요	-6602
▁공부하세요	-6603
▁공부해야지	-6604
▁괜찮아지고	-6605
▁그린라이트	-6606
▁기다리세요	-6607
▁기다릴게요	-6608
▁끝났습니다	-6609
▁나갈거예요	-6610
▁나눠보는게	-6611
▁나쁜거예요	-6612
▁남자입니다	-6613
▁놀랐겠어요	-6614
▁놀랐나봐요	-6615
▁놀러가세요	-6616
▁다가가세요	-6617
▁다행이네요	-6618
▁대단하네요	-6619
▁대피방법을	-6620
▁덜어보세요	-6621
▁데려가세요	-6622
▁도와달라고	-6623
▁동감입니다	-6624
▁두근거림을	-6625
▁드려보세요	-6626
▁들려주세요	-6627
▁들었겠네요	-6628
▁따뜻해졌죠	-6629
▁로봇이에요	-6630
▁만남이네요	-6631
▁만들었어요	-6632
▁망가뜨리기	-6633
▁밀어보세요	-6634
▁바람이라도	-6635
▁받아들여야	-6636
▁벅찰텐대요	-6637
▁병원가세요	-6638
▁보냈습니다	-6639
▁불편하겠죠	-6640
▁비하하지는	-6641
▁사랑스러운	-6642
▁사랑이라는	-6643
▁사랑이에요	-6644
▁사랑하니까	-6645
▁삭제하는게	-6646
▁상관없지만	-6647
▁생각이네요	-6648
▁생각한대로	-6649
▁생각할게요	-6650
▁생각할수록	-6651
▁생겼을지도	-6652
▁선물이네요	-6653
▁선택이었을	-6654
▁성공적으로	-6655
▁세워보세요	-6656
▁소개팅으로	-6657
▁소개팅하고	-6658
▁소중합니다	-6659
▁스타트업에	-6660
▁스트레스를	-6661
▁스트레스야	-6662
▁스트레스의	-6663
▁시간이네요	-6664
▁시켜달라고	-6665
▁아직이라면	-6666
▁알아두세요	-6667
▁알아차려도	-6668
▁알아차리지	-6669
▁애정표현일	-6670
▁없애주세요	-6671
▁없으니까요	-6672
▁여쭤보세요	-6673
▁여행이네요	-6674
▁연락이라도	-6675
▁연락하는게	-6676
▁연락하라고	-6677
▁연락해보는	-6678
▁연락해봐요	-6679
▁오늘이에요	-6680
▁운동하세요	-6681
▁움직이세요	-6682
▁위해서예요	-6683
▁응원할게요	-6684
▁이야기하고	-6685
▁이야기하는	-6686
▁이어나가는	-6687
▁인공지능에	-6688
▁일어나세요	-6689
▁있었을지도	-6690
▁자체만으로	-6691
▁잘못입니다	-6692
▁잡아보세요	-6693
▁재밌겠어요	-6694
▁점심시간에	-6695
▁정리하세요	-6696
▁정신건강에	-6697
▁정정기간을	-6698
▁제자리걸음	-6699
▁조급해지면	-6700
▁졸업하는데	-6701
▁좋으시네요	-6702
▁주의하세요	-6703
▁준비하기는	-6704
▁준비하느라	-6705
▁지저분해요	-6706
▁직접적으로	-6707
▁질러보세요	-6708
▁청소하세요	-6709
▁치료하세요	-6710
▁친구들한테	-6711
▁친해지는게	-6712
▁칭찬이네요	-6713
▁칭찬해주고	-6714
▁포장하는게	-6715
▁표현해보는	-6716
▁하루하루가	-6717
▁하우스웨딩	-6718
▁해드릴게요	-6719
▁해야겠네여	-6720
▁행복하세요	-6721
▁행복해보여	-6722
▁호랑이보다	-6723
▁확실해지면	-6724
▁흘려보세요	-6725
▁힘드니까요	-6726
▁간절하겠네요	-6727
▁개시해보세요	-6728
▁걱정되겠어요	-6729
▁결정했나봐요	-6730
▁극복해보세요	-6731
▁낳을뿐이에요	-6732
▁넓으신가봐요	-6733
▁놔둬야하는데	-6734
▁대단하시군요	-6735
▁되짚어보세요	-6736
▁많았나봅니다	-6737
▁부딪혔나봐요	-6738
▁부탁드립니다	-6739
▁분담해보세요	-6740
▁사랑하는지는	-6741
▁삭제해보세요	-6742
▁아껴뒀나봐요	-6743
▁연락두절돼서	-6744
▁운동해보세요	-6745
▁위로해드리는	-6746
▁이해해보세요	-6747
▁재미있나봐요	-6748
▁절약되겠네요	-6749
▁정신차리세요	-6750
▁존중해주세요	-6751
▁챙겨드시거나	-6752
▁축하해주세요	-6753
▁포맷해보세요	-6754
▁피곤했나봐요	-6755
▁필요해보여요	-6756
▁확인해달라고	-6757
▁힘드시겠어요	-6758
▁걱정하지마세요	-6759
▁결정이었을거라	-6760
▁말씀드려보세요	-6761
▁부담스러워할까	-6762
▁적응해야겠네요	-6763
▁좋아하시는구나	-6764
▁프로포즈해보세요	-6765
▁0	-6766
▁갱	-6767
▁겉	-6768
▁곤	-6769
▁깍	-6770
▁깰	-6771
▁껴	-6772
▁꽝	-6773
▁꿔	-6774
▁꿰	-6775
▁낸	-6776
▁넋	-6777
▁뇌	-6778
▁눌	-6779
▁눕	-6780
▁는	-6781
▁덥	-6782
▁돋	-6783
▁	-6784
.	-6785
요	-6786
이	-6787
어	-6788
는	-6789
하	-6790
아	-6791
가	-6792
지	-6793
다	-6794
해	-6795
고	-6796
세	-6797
을	-6798
나	-6799
사	-6800
보	-6801
도	-6802
거	-6803
게	-6804
좋	-6805
에	-6806
자	-6807
있	-6808
은	-6809
기	-6810
면	-6811
한	-6812
까	-6813
?	-6814
네	-6815
만	-6816
니	-6817
데	-6818
마	-6819
랑	-6820
예	-6821
서	-6822
그	-6823
겠	-6824
로	-6825
시	-6826
리	-6827
들	-6828
람	-6829
생	-6830
인	-6831
무	-6832
라	-6833
일	-6834
수	-6835
야	-6836
같	-6837
남	-6838
안	-6839
할	-6840
친	-6841
정	-6842
연	-6843
를	-6844
구	-6845
으	-6846
말	-6847
여	-6848
주	-6849
내	-6850
봐	-6851
의	-6852
죠	-6853
음	-6854
없	-6855
싶	-6856
각	-6857
제	-6858
신	-6859
것	-6860
려	-6861
오	-6862
잘	-6863
힘	-6864
너	-6865
대	-6866
상	-6867
간	-6868
많	-6869
별	-6870
더	-6871
바	-6872
않	-6873
했	-6874
스	-6875
진	-6876
부	-6877
되	-6878
애	-6879
전	-6880
드	-6881
락	-6882
었	-6883
건	-6884
저	-6885
때	-6886
모	-6887
헤	-6888
금	-6889
중	-6890
심	-6891
짝	-6892
운	-6893
화	-6894
길	-6895
썸	-6896
혼	-6897
비	-6898
워	-6899
못	-6900
러	-6901
장	-6902
물	-6903
미	-6904
적	-6905
분	-6906
알	-6907
감	-6908
먹	-6909
히	-6910
걸	-6911
습	-6912
래	-6913
당	-6914
우	-6915
받	-6916
테	-6917
행	-6918
결	-6919
소	-6920
선	-6921
달	-6922
날	-6923
르	-6924
직	-6925
좀	-6926
후	-6927
살	-6928
조	-6929
회	-6930
관	-6931
!	-6932
늘	-6933
았	-6934
타	-6935
돼	-6936
든	-6937
방	-6938
될	-6939
동	-6940
녀	-6941
실	-6942
복	-6943
차	-6944
과	-6945
질	-6946
뭐	-6947
른	-6948
찮	-6949
공	-6950
와	-6951
트	-6952
끝	-6953
괜	-6954
속	-6955
원	-6956
계	-6957
처	-6958
치	-6959
필	-6960
잊	-6961
두	-6962
집	-6963
문	-6964
귀	-6965
유	-6966
편	-6967
난	-6968
준	-6969
재	-6970
졌	-6971
경	-6972
런	-6973
던	-6974
답	-6975
줄	-6976
성	-6977
울	-6978
피	-6979
왜	-6980
년	-6981
렇	-6982
식	-6983
떻	-6984
느	-6985
꾸	-6986
볼	-6987
져	-6988
개	-6989
위	-6990
버	-6991
왔	-6992
떨	-6993
입	-6994
현	-6995
작	-6996
배	-6997
번	-6998
노	-6999
눈	-7000
새	-7001
맞	-7002
언	-7003
추	-7004
났	-7005
짜	-7006
또	-7007
법	-7008
잠	-7009
프	-7010
올	-7011
단	-7012
민	-7013
참	-7014
함	-7015
쓰	-7016
학	-7017
디	-7018
따	-7019
싫	-7020
력	-7021
줘	-7022
확	-7023
반	-7024
찾	-7025
겨	-7026
변	-7027
잡	-7028
담	-7029
쉬	-7030
억	-7031
카	-7032
능	-7033
점	-7034
갈	-7035
터	-7036
먼	-7037
얼	-7038
합	-7039
근	-7040
용	-7041
통	-7042
매	-7043
표	-7044
놀	-7045
술	-7046
천	-7047
절	-7048
레	-7049
련	-7050
백	-7051
누	-7052
럴	-7053
돌	-7054
머	-7055
불	-7056
맛	-7057
루	-7058
릴	-7059
발	-7060
긴	-7061
몰	-7062
호	-7063
듯	-7064
움	-7065
봅	-7066
꿈	-7067
충	-7068
랄	-7069
교	-7070
막	-7071
톡	-7072
청	-7073
파	-7074
약	-7075
접	-7076
증	-7077
영	-7078
돈	-7079
1	-7080
군	-7081
됐	-7082
취	-7083
싸	-7084
월	-7085
젠	-7086
큼	-7087
강	-7088
놓	-7089
닌	-7090
명	-7091
빠	-7092
째	-7093
곳	-7094
된	-7095
랍	-7096
외	-7097
떠	-7098
망	-7099
쁜	-7100
택	-7101
겼	-7102
믿	-7103
순	-7104
쉽	-7105
크	-7106
걱	-7107
국	-7108
임	-7109
갑	-7110
께	-7111
름	-7112
커	-7113
2	-7114
씩	-7115
업	-7116
맘	-7117
셨	-7118
앞	-7119
축	-7120
키	-7121
럽	-7122
였	-7123
온	-7124
,	-7125
열	-7126
폰	-7127
황	-7128
짐	-7129
설	-7130
휴	-7131
냥	-7132
슨	-7133
침	-7134
텐	-7135
뭘	-7136
쁘	-7137
슬	-7138
3	-7139
떤	-7140
럼	-7141
님	-7142
엄	-7143
궁	-7144
렸	-7145
최	-7146
허	-7147
켜	-7148
혀	-7149
착	-7150
쳐	-7151
출	-7152
태	-7153
양	-7154
격	-7155
족	-7156
험	-7157
급	-7158
록	-7159
잔	-7160
깨	-7161
존	-7162
포	-7163
갔	-7164
늦	-7165
린	-7166
환	-7167
즐	-7168
픈	-7169
형	-7170
몸	-7171
죽	-7172
체	-7173
떡	-7174
본	-7175
벌	-7176
책	-7177
극	-7178
냐	-7179
덜	-7180
산	-7181
종	-7182
챙	-7183
풀	-7184
목	-7185
써	-7186
첫	-7187
넘	-7188
플	-7189
란	-7190
항	-7191
멋	-7192
완	-7193
찍	-7194
티	-7195
낌	-7196
뿐	-7197
팅	-7198
향	-7199
붙	-7200
밥	-7201
셔	-7202
웃	-7203
견	-7204
응	-7205
초	-7206
활	-7207
글	-7208
손	-7209
평	-7210
끔	-7211
꼭	-7212
맨	-7213
숙	-7214
씨	-7215
폭	-7216
흘	-7217
즘	-7218
큰	-7219
탈	-7220
0	-7221
굴	-7222
뜻	-7223
줬	-7224
투	-7225
욕	-7226
짓	-7227
낼	-7228
닐	-7229
색	-7230
씀	-7231
곤	-7232
둘	-7233
봤	-7234
빨	-7235
뻐	-7236
뭔	-7237
솔	-7238
페	-7239
5	-7240
슴	-7241
풍	-7242
메	-7243
밀	-7244
코	-7245
꽃	-7246
병	-7247
척	-7248
냈	-7249
딱	-7250
똑	-7251
몇	-7252
졸	-7253
핸	-7254
껴	-7255
밤	-7256
며	-7257
벽	-7258
4	-7259
픔	-7260
독	-7261
찬	-7262
쳤	-7263
갖	-7264
듣	-7265
랐	-7266
림	-7267
옷	-7268
덤	-7269
밌	-7270
랜	-7271
승	-7272
역	-7273
짧	-7274
퇴	-7275
괴	-7276
끊	-7277
밖	-7278
봄	-7279
쓸	-7280
익	-7281
칭	-7282
핑	-7283
뒤	-7284
빼	-7285
펴	-7286
흐	-7287
6	-7288
꺼	-7289
료	-7290
박	-7291
베	-7292
빌	-7293
숨	-7294
악	-7295
칠	-7296
웠	-7297
흔	-7298
끼	-7299
얘	-7300
엇	-7301
깐	-7302
녕	-7303
득	-7304
렵	-7305
롭	-7306
렀	-7307
멀	-7308
깊	-7309
뎌	-7310
춰	-7311
케	-7312
곧	-7313
골	-7314
낫	-7315
석	-7316
높	-7317
삶	-7318
읽	-7319
잖	-7320
찌	-7321
채	-7322
헷	-7323
념	-7324
등	-7325
멍	-7326
숭	-7327
염	-7328
킨	-7329
퍼	-7330
꼬	-7331
냉	-7332
철	-7333
겁	-7334
꿨	-7335
뜨	-7336
벗	-7337
창	-7338
탁	-7339
끄	-7340
맥	-7341
섭	-7342
쇼	-7343
쩌	-7344
쯤	-7345
판	-7346
꿀	-7347
덧	-7348
션	-7349
십	-7350
클	-7351
특	-7352
덕	-7353
북	-7354
센	-7355
옆	-7356
팔	-7357
효	-7358
랬	-7359
례	-7360
립	-7361
뻔	-7362
엔	-7363
쟁	-7364
쩔	-7365
틀	-7366
틱	-7367
품	-7368
헛	-7369
김	-7370
깝	-7371
꿔	-7372
놈	-7373
딩	-7374
류	-7375
밍	-7376
삼	-7377
콩	-7378
패	-7379
희	-7380
권	-7381
냄	-7382
멈	-7383
싱	-7384
쌓	-7385
육	-7386
낭	-7387
땐	-7388
론	-7389
릿	-7390
삭	-7391
샀	-7392
엽	-7393
죄	-7394
즈	-7395
걷	-7396
놔	-7397
눠	-7398
됩	-7399
량	-7400
셀	-7401
턴	-7402
텨	-7403
토	-7404
획	-7405
귄	-7406
됨	-7407
브	-7408
뿌	-7409
액	-7410
7	-7411
깍	-7412
깔	-7413
뀌	-7414
녁	-7415
닥	-7416
벼	-7417
봇	-7418
웨	-7419
푸	-7420
혹	-7421
8	-7422
뀔	-7423
끈	-7424
뉴	-7425
뒷	-7426
듭	-7427
쐬	-7428
잤	-7429
흡	-7430
귈	-7431
긍	-7432
꼼	-7433
농	-7434
둬	-7435
딸	-7436
슷	-7437
썼	-7438
옴	-7439
컨	-7440
흥	-7441
갚	-7442
깜	-7443
끌	-7444
닫	-7445
렌	-7446
블	-7447
쓴	-7448
씹	-7449
왕	-7450
춥	-7451
콜	-7452
푹	-7453
걔	-7454
곰	-7455
규	-7456
낮	-7457
넌	-7458
넣	-7459
딴	-7460
뛰	-7461
링	-7462
뽑	-7463
씻	-7464
쪽	-7465
찰	-7466
춘	-7467
칼	-7468
컴	-7469
9	-7470
값	-7471
곁	-7472
깎	-7473
끗	-7474
낸	-7475
널	-7476
듬	-7477
렘	-7478
맙	-7479
몽	-7480
밝	-7481
봉	-7482
빛	-7483
빡	-7484
옥	-7485
잃	-7486
첩	-7487
콘	-7488
콤	-7489
탄	-7490
탔	-7491
헬	-7492
혔	-7493
겹	-7494
껏	-7495
꾹	-7496
닉	-7497
딪	-7498
랫	-7499
룩	-7500
뤄	-7501
맡	-7502
벚	-7503
빈	-7504
샤	-7505
앉	-7506
잇	-7507
탕	-7508
털	-7509
힌	-7510
검	-7511
낀	-7512
납	-7513
넓	-7514
녹	-7515
닮	-7516
둔	-7517
땀	-7518
땅	-7519
띄	-7520
롱	-7521
벤	-7522
엉	-7523
잼	-7524
짠	-7525
찔	-7526
콕	-7527
툰	-7528
팍	-7529
낄	-7530
늙	-7531
땡	-7532
뚝	-7533
렬	-7534
령	-7535
뢰	-7536
볶	-7537
빵	-7538
뻑	-7539
뽀	-7540
쁠	-7541
섬	-7542
씁	-7543
압	-7544
얻	-7545
왤	-7546
웬	-7547
젖	-7548
짱	-7549
킁	-7550
템	-7551
푼	-7552
햇	-7553
훈	-7554
객	-7555
곡	-7556
긋	-7557
꼈	-7558
꽤	-7559
끓	-7560
낙	-7561
낳	-7562
뒀	-7563
뜰	-7564
뱃	-7565
송	-7566
싼	-7567
쌩	-7568
앗	-7569
징	-7570
쩍	-7571
쪄	-7572
쪼	-7573
찼	-7574
춤	-7575
층	-7576
켠	-7577
탐	-7578
툴	-7579
휘	-7580
곱	-7581
광	-7582
궈	-7583
낚	-7584
눅	-7585
늠	-7586
닝	-7587
닿	-7588
돋	-7589
둠	-7590
둥	-7591
뒹	-7592
똥	-7593
롤	-7594
릎	-7595
묻	-7596
밑	-7597
밟	-7598
벅	-7599
범	-7600
쉴	-7601
슈	-7602
쌍	-7603
썹	-7604
쑥	-7605
옳	-7606
욱	-7607
젯	-7608
찜	-7609
찢	-7610
첨	-7611
퀴	-7612
톱	-7613
툼	-7614
틋	-7615
팩	-7616
팸	-7617
퓨	-7618
헥	-7619
흑	-7620
겟	-7621
긁	-7622
꾼	-7623
댈	-7624
렛	-7625
렜	-7626
률	-7627
릅	-7628
묵	-7629
볍	-7630
빚	-7631
쁨	-7632
삐	-7633
싹	-7634
쌈	-7635
쎄	-7636
쏟	-7637
쏠	-7638
씌	-7639
엮	-7640
왠	-7641
윗	-7642
쫄	-7643
쫌	-7644
찐	-7645
촉	-7646
츠	-7647
켰	-7648
쿨	-7649
탓	-7650
틈	-7651
팀	-7652
팠	-7653
폼	-7654
헌	-7655
홀	-7656
힐	-7657
갠	-7658
겪	-7659
굳	-7660
껄	-7661
꼰	-7662
꽉	-7663
넷	-7664
놨	-7665
댓	-7666
덥	-7667
딘	-7668
딛	-7669
떼	-7670
뚫	-7671
램	-7672
릇	-7673
맴	-7674
맷	-7675
맺	-7676
멘	-7677
몫	-7678
밉	-7679
빙	-7680
빴	-7681
샌	-7682
앨	-7683
엠	-7684
욜	-7685
웹	-7686
율	-7687
좌	-7688
줌	-7689
쥐	-7690
짚	-7691
짰	-7692
쭉	-7693
쭤	-7694
총	-7695
촬	-7696
컥	-7697
컷	-7698
컸	-7699
텁	-7700
텔	-7701
팁	-7702
팬	-7703
펑	-7704
풋	-7705
핫	-7706
훔	-7707
흠	-7708
갱	-7709
겉	-7710
겐	-7711
깰	-7712
꽝	-7713
꿰	-7714
넋	-7715
뇌	-7716
눌	-7717
눕	-7718
닷	-7719
댄	-7720
돕	-7721
됬	-7722
딜	-7723
땜	-7724
떴	-7725
뜬	-7726
띠	-7727
랖	-7728
랙	-7729
렐	-7730
렴	-7731
륵	-7732
몬	-7733
묘	-7734
샜	-7735
숫	-7736
썩	-7737
앱	-7738
얽	-7739
엊	-7740
엿	-7741
옵	-7742
왓	-7743
젤	-7744
졋	-7745
짼	-7746
측	-7747
캬	-7748
쿠	-7749
쿵	-7750
킬	-7751
턱	-7752
텀	-7753
텅	-7754
툭	-7755
헐	-7756
헹	-7757
홈	-7758
홧	-7759
걍	-7760
겜	-7761
괘	-7762
균	-7763
귤	-7764
깃	-7765
깅	-7766
깬	-7767
깼	-7768
꼴	-7769
꽂	-7770
꿩	-7771
넛	-7772
넥	-7773
넹	-7774
녔	-7775
논	-7776
뇨	-7777
눴	-7778
닦	-7779
닭	-7780
댔	-7781
덩	-7782
덮	-7783
뚱	-7784
띰	-7785
띵	-7786
랭	-7787
렉	-7788
룰	-7789
룸	-7790
룽	-7791
륜	-7792
릭	-7793
맹	-7794
뮤	-7795
밭	-7796
벨	-7797
볕	-7798
붓	-7799
뷔	-7800
빽	-7801
뺏	-7802
뻤	-7803
뽕	-7804
뿅	-7805
삔	-7806
샐	-7807
샘	-7808
섞	-7809
섣	-7810
섯	-7811
섰	-7812
섹	-7813
솜	-7814
쇠	-7815
숏	-7816
썰	-7817
쑤	-7818
씰	-7819
씸	-7820
얇	-7821
옛	-7822
옮	-7823
왼	-7824
웁	-7825
웽	-7826
윙	-7827
젊	-7828
젝	-7829
줍	-7830
쥬	-7831
즙	-7832
짤	-7833
짬	-7834
쨌	-7835
쪘	-7836
찡	-7837
찹	-7838
챘	-7839
쳇	-7840
칩	-7841
캄	-7842
캐	-7843
캔	-7844
켓	-7845
콧	-7846
쿼	-7847
킥	-7848
킹	-7849
텼	-7850
톤	-7851
퉁	-7852
튀	-7853
튜	-7854
펭	-7855
픽	-7856
핀	-7857
헉	-7858
혈	-7859
혐	-7860
훅	-7861
훌	-7862
휙	-7863
흰	-7864
갇	-7865
갯	-7866
곗	-7867
굶	-7868
굽	-7869
굿	-7870
궜	-7871
귐	-7872
깠	-7873
깡	-7874
꺽	-7875
껀	-7876
꼿	-7877
꽁	-7878
꽈	-7879
꿎	-7880
꿧	-7881
뀐	-7882
냅	-7883
놉	-7884
뇽	-7885
늪	-7886
닙	-7887
닳	-7888
댜	-7889
덴	-7890
델	-7891
뎠	-7892
둑	-7893
듀	-7894
듦	-7895
딧	-7896
딨	-7897
땠	-7898
떄	-7899
뗄	-7900
뛴	-7901
뜁	-7902
뜩	-7903
뜸	-7904
랠	-7905
랩	-7906
럿	-7907
렁	-7908
렷	-7909
롯	-7910
멤	-7911
몹	-7912
뭇	-7913
뭉	-7914
뭣	-7915
밸	-7916
뱄	-7917
뱉	-7918
벋	-7919
벴	-7920
뵈	-7921
붕	-7922
빔	-7923
빗	-7924
뺄	-7925
뺴	-7926
뻘	-7927
뻣	-7928
뻥	-7929
뿍	-7930
삽	-7931
삿	-7932
셥	-7933
숍	-7934
쉼	-7935
쌀	-7936
쌤	-7937
쎈	-7938
쎌	-7939
쏘	-7940
쏜	-7941
씬	-7942
씽	-7943
앙	-7944
얄	-7945
엘	-7946
엣	-7947
옇	-7948
욌	-7949
윤	-7950
잌	-7951
잦	-7952
잿	-7953
젔	-7954
젹	-7955
좁	-7956
즉	-7957
쩐	-7958
쩝	-7959
쩡	-7960
쫙	-7961
쭈	-7962
찝	-7963
챔	-7964
챗	-7965
촌	-7966
췄	-7967
츄	-7968
츤	-7969
칙	-7970
칫	-7971
컹	-7972
쾌	-7973
큐	-7974
킴	-7975
탑	-7976
탱	-7977
텄	-7978
텍	-7979
텻	-7980
퉜	-7981
펜	-7982
펨	-7983
펼	-7984
폐	-7985
퐈	-7986
픕	-7987
핍	-7988
핏	-7989
햐	-7990
협	-7991
혜	-7992
훨	-7993
휨	-7994
힙	-7995
